{"<pad>":0,"<mask>":1,"<unk>":2,"<s>":3,"</s>":4,"!":5,"\"":6,"#":7,"$":8,"%":9,"&":10,"'":11,"(":12,")":13,"*":14,"+":15,",":16,"-":17,".":18,"/":19,"0":20,"1":21,"2":22,"3":23,"4":24,"5":25,"6":26,"7":27,"8":28,"9":29,":":30,";":31,"<":32,"=":33,">":34,"?":35,"@":36,"A":37,"B":38,"C":39,"D":40,"E":41,"F":42,"G":43,"H":44,"I":45,"J":46,"K":47,"L":48,"M":49,"N":50,"O":51,"P":52,"Q":53,"R":54,"S":55,"T":56,"U":57,"V":58,"W":59,"X":60,"Y":61,"Z":62,"[":63,"\\":64,"]":65,"^":66,"_":67,"`":68,"a":69,"b":70,"c":71,"d":72,"e":73,"f":74,"g":75,"h":76,"i":77,"j":78,"k":79,"l":80,"m":81,"n":82,"o":83,"p":84,"q":85,"r":86,"s":87,"t":88,"u":89,"v":90,"w":91,"x":92,"y":93,"z":94,"{":95,"|":96,"}":97,"~":98,"¡":99,"¢":100,"£":101,"¤":102,"¥":103,"¦":104,"§":105,"¨":106,"©":107,"ª":108,"«":109,"¬":110,"®":111,"¯":112,"°":113,"±":114,"²":115,"³":116,"´":117,"µ":118,"¶":119,"·":120,"¸":121,"¹":122,"º":123,"»":124,"¼":125,"½":126,"¾":127,"¿":128,"À":129,"Á":130,"Â":131,"Ã":132,"Ä":133,"Å":134,"Æ":135,"Ç":136,"È":137,"É":138,"Ê":139,"Ë":140,"Ì":141,"Í":142,"Î":143,"Ï":144,"Ð":145,"Ñ":146,"Ò":147,"Ó":148,"Ô":149,"Õ":150,"Ö":151,"×":152,"Ø":153,"Ù":154,"Ú":155,"Û":156,"Ü":157,"Ý":158,"Þ":159,"ß":160,"à":161,"á":162,"â":163,"ã":164,"ä":165,"å":166,"æ":167,"ç":168,"è":169,"é":170,"ê":171,"ë":172,"ì":173,"í":174,"î":175,"ï":176,"ð":177,"ñ":178,"ò":179,"ó":180,"ô":181,"õ":182,"ö":183,"÷":184,"ø":185,"ù":186,"ú":187,"û":188,"ü":189,"ý":190,"þ":191,"ÿ":192,"Ā":193,"ā":194,"Ă":195,"ă":196,"Ą":197,"ą":198,"Ć":199,"ć":200,"Ĉ":201,"ĉ":202,"Ċ":203,"ċ":204,"Č":205,"č":206,"Ď":207,"ď":208,"Đ":209,"đ":210,"Ē":211,"ē":212,"Ĕ":213,"ĕ":214,"Ė":215,"ė":216,"Ę":217,"ę":218,"Ě":219,"ě":220,"Ĝ":221,"ĝ":222,"Ğ":223,"ğ":224,"Ġ":225,"ġ":226,"Ģ":227,"ģ":228,"Ĥ":229,"ĥ":230,"Ħ":231,"ħ":232,"Ĩ":233,"ĩ":234,"Ī":235,"ī":236,"Ĭ":237,"ĭ":238,"Į":239,"į":240,"İ":241,"ı":242,"Ĳ":243,"ĳ":244,"Ĵ":245,"ĵ":246,"Ķ":247,"ķ":248,"ĸ":249,"Ĺ":250,"ĺ":251,"Ļ":252,"ļ":253,"Ľ":254,"ľ":255,"Ŀ":256,"ŀ":257,"Ł":258,"ł":259,"Ń":260,"ä¸":261,"çļ":262,"çļĦ":263,"ãĢ":264,"ä»":265,"äº":266,"æľ":267,"ãĢĤ":268,"åı":269,"åħ":270,"ä½":271,"æĪ":272,"åľ":273,"å®":274,"å¤":275,"è¿":276,"åĪ":277,"çĶ":278,"æĺ":279,"åĲ":280,"Ġa":281,"è¯":282,"åĬ":283,"æĸ":284,"åľ¨":285,"è®":286,"Ġi":287,"åĽ":288,"ç»":289,"å°":290,"åĴ":291,"åº":292,"ä¸Ģ":293,"åĴĮ":294,"ä¹":295,"æĹ":296,"æľī":297,"æĺ¯":298,"ä¼":299,"Ġe":300,"æĪĳ":301,"æĿ":302,"åį":303,"æī":304,"å¹":305,"éĩ":306,"Ġo":307,"éĢ":308,"ãĢģ":309,"å¸":310,"å·":311,"äºĨ":312,"äºº":313,"çĶ¨":314,"ä¸į":315,"åŃ":316,"å¾":317,"ä»¬":318,"è¡":319,"å¯":320,"ä¸ª":321,"å¥":322,"åĨ":323,"å¼":324,"çī":325,"æķ":326,"è§":327,"ä»¥":328,"ä¸Ń":329,"ä»ĸ":330,"åĩ":331,"è¿Ļ":332,"åı¯":333,"ĥ½":334,"ä¿":335,"éĹ":336,"èĢ":337,"è´":338,"æł":339,"åĮ":340,"ä¸º":341,"çĽ":342,"åľ°":343,"ç§":344,"ç½":345,"è½":346,"æĭ":347,"çº":348,"æĢ":349,"ä½ł":350,"æĬ":351,"éĻ":352,"æĤ":353,"åĽ½":354,"ä¾":355,"å¿":356,"æŃ":357,"æ³":358,"å¤§":359,"ä¸Ĭ":360,"èµ":361,"éħ":362,"æµ":363,"¦ģ":364,"åĪ°":365,"æĶ":366,"èĩ":367,"è¦ģ":368,"äºİ":369,"æĤ¨":370,"æĹ¶":371,"æİ":372,"åİ":373,"éĿ":374,"åħ¬":375,"ç«":376,"âĢ":377,"çİ":378,"ä¼ļ":379,"åĳ":380,"åĵ":381,"å½":382,"èĥ½":383,"æı":384,"æŀ":385,"æĪĸ":386,"æĪĳä»¬":387,"å¦":388,"è¡Į":389,"æĥ":390,"æĿ¥":391,"é¢":392,"å±":393,"Ġu":394,"çľ":395,"çĲ":396,"ä½ľ":397,"éħĴ":398,"åºĹ":399,"è¾":400,"æ°":401,"æĦ":402,"æıĲ":403,"å¯¹":404,"åŁ":405,"å¤ļ":406,"æīĢ":407,"æ¸":408,"åıĳ":409,"æ²":410,"ä¸ĭ":411,"æĸ¹":412,"æľº":413,"æĮ":414,"æ¯":415,"æį":416,"æ´":417,"çĶŁ":418,"éħĴåºĹ":419,"é¡":420,"åĬ¡":421,"è¿ĩ":422,"æ±":423,"åĬ¨":424,"æĽ":425,"å¹´":426,"èĩª":427,"åĩº":428,"å·¥":429,"åħ¶":430,"Ġs":431,"ç®":432,"å¦Ĥ":433,"ĠA":434,"éĩĮ":435,"ä½¿":436,"å®¶":437,"ä¸Ģä¸ª":438,"æĪĲ":439,"ç¨":440,"ä¸ļ":441,"éĹ´":442,"ä¸İ":443,"ä¾Ľ":444,"æ¬":445,"æģ":446,"éĺ":447,"æľ¬":448,"åī":449,"20":450,"ĠS":451,"åĪĨ":452,"è®¾":453,"éĤ":454,"æľĢ":455,"çŃ":456,"çĶµ":457,"çĲĨ":458,"er":459,"æķ°":460,"äº§":461,"ç¬":462,"ä»¶":463,"åıĬ":464,"åĵģ":465,"ç¤":466,"éģ":467,"ä¿¡":468,"è·":469,"ç½ĳ":470,"çĿ":471,"æĢ§":472,"å¹¶":473,"å°±":474,"åģ":475,"ĠC":476,"æĸ°":477,"Ł¥":478,"ç³":479,"åŃĲ":480,"æľį":481,"å°Ĩ":482,"æ³ķ":483,"åħ³":484,"éĿ¢":485,"åĿ":486,"åĪ©":487,"åħ¨":488,"æĸ¯":489,"åķ":490,"Ġ.":491,"ç»ı":492,"åºĶ":493,"Ġ,":494,"nt":495,"æĽ´":496,"åĲĪ":497,"é«":498,"å¼Ģ":499,"å¾Ĺ":500,"éĢļ":501,"ç¾":502,"å®ļ":503,"åı¯ä»¥":504,"é«ĺ":505,"æıĲä¾Ľ":506,"Ġr":507,"ç³»":508,"çĤ":509,"çİ°":510,"å®¢":511,"åĬł":512,"åĨħ":513,"åĲĮ":514,"ä¹ĭ":515,"è¿Ľ":516,"çī¹":517,"éĽ":518,"ĠI":519,"ä¹Ł":520,"å¿ĥ":521,"ä¿Ŀ":522,"è¯´":523,"å¥¹":524,"åĲİ":525,"åŃ¦":526,"ä½ķ":527,"èī":528,"ç¨ĭ":529,"æľįåĬ¡":530,"éĥ":531,"ä»İ":532,"ä»»":533,"åĪ¶":534,"çľĭ":535,"æĻ":536,"åĻ":537,"Ġin":538,"Ġ)":539,"èĢĮ":540,"æĸĩ":541,"ç¬¬":542,"èģ":543,"åīį":544,"Ġan":545,"æĦı":546,"åº¦":547,"00":548,"çļĦç":549,"åı¸":550,"åĻ¨":551,"äºĽ":552,"æį®":553,"éĤ£":554,"ä½¿çĶ¨":555,"on":556,"éľ":557,"çĿĢ":558,"è¡¨":559,"åĽ¾":560,"ä½ĵ":561,"éĥ¨":562,"è°":563,"å¥½":564,"st":565,"ä½į":566,"ä¸»":567,"æģ¯":568,"å®ŀ":569,"èĢħ":570,"çĤ¹":571,"æİ¥":572,"åľº":573,"éĥ½":574,"ç¤º":575,"è¯·":576,"ç¾İ":577,"è¶":578,"ĠE":579,"ç±":580,"å°Ķ":581,"éĩį":582,"ä¹Ī":583,"åħ¬åı¸":584,"è½¦":585,"çĦ":586,"æĹ¥":587,"æĪ·":588,"åķĨ":589,"çī©":590,"æĥħ":591,"å¤©":592,"äºĭ":593,"åĬĽ":594,"ç¦":595,"éģĵ":596,"or":597,"åĢ":598,"å¼ı":599,"ĠP":600,"çķ":601,"è®¡":602,"åĮĸ":603,"æŀľ":604,"å½ĵ":605,"æŃ¤":606,"èĪ":607,"Ġer":608,"éĶ":609,"åĽł":610,"æĪ¿":611,"å¤ĸ":612,"æ±Ĥ":613,"ĠT":614,"é¦":615,"æĹł":616,"å°ı":617,"ç§į":618,"ç«Ļ":619,"è¢":620,"le":621,"ä»ĸä»¬":622,"ç¡":623,"éĴ":624,"å®ī":625,"å»":626,"èĤ":627,"éĩı":628,"å§":629,"ĠM":630,"çĦ¶":631,"åĮº":632,"å£":633,"in":634,"èĬ":635,"an":636,"ç¥":637,"âĢĿ":638,"Ġc":639,"è¿ĺ":640,"å®ĥ":641,"âĢľ":642,"åħ¥":643,"ç©":644,"æ¡":645,"é£":646,"éļ":647,"äºļ":648,"ä¿¡æģ¯":649,"ĠR":650,"te":651,"çĽ¸":652,"èĭ":653,"è£":654,"éķ":655,"ĠD":656,"é©":657,"èĲ":658,"å¸Ĥ":659,"Ġ-":660,"æł¼":661,"ç®¡":662,"Ġar":663,"åĲį":664,"è§£":665,"ĠB":666,"æł·":667,"ç»Ł":668,"åĮħ":669,"åŁº":670,"æ²¡":671,"è¢«":672,"èµĦ":673,"æĺ¾":674,"ĠH":675,"ä½Ĩ":676,"ar":677,"çĽ®":678,"éľĢ":679,"æłĩ":680,"çĶ±":681,"æĥ³":682,"Ġp":683,"éĹ®":684,"ä»»ä½ķ":685,"çĻ":686,"éĢī":687,"çł":688,"ç¼":689,"ç´":690,"Ġt":691,"è´¹":692,"å¢":693,"201":694,"å·²":695,"æķ°æį®":696,"åĳĺ":697,"Ġy":698,"å¤ĩ":699,"è¯¥":700,"æīĢæľī":701,"åŀ":702,"æĭī":703,"æľĪ":704,"çº¿":705,"Ġ(":706,"èµ·":707,"æĺİ":708,"ĠL":709,"çŃī":710,"çŁ¥":711,"èģĶ":712,"åİ»":713,"æ»":714,"æīĭ":715,"æ¶":716,"Ġ1":717,"ç¦»":718,"å¾Ī":719,"æµ·":720,"çĥ":721,"åıĹ":722,"å»º":723,"æľ¯":724,"äº¤":725,"æ´»":726,"ä»£":727,"çĪ":728,"äº§åĵģ":729,"è§Ĩ":730,"æĿĥ":731,"æĤ¨çļĦ":732,"å¹³":733,"ĠçļĦ":734,"èİ":735,"Ġon":736,"¥¿":737,"èº":738,"å±ķ":739,"éĵ":740,"è¥¿":741,"å·¥ä½ľ":742,"åŀĭ":743,"æĬĢ":744,"åįķ":745,"æŃ£":746,"Ġen":747,"èī²":748,"æľŁ":749,"æ·":750,"åĲĳ":751,"åħ·":752,"om":753,"æĸĻ":754,"æ°´":755,"éķ¿":756,"Ġat":757,"æĮģ":758,"æĺ¾ç¤º":759,"èĦ":760,"Ġb":761,"åħ¶ä»ĸ":762,"å¸¸":763,"Ġl":764,"å¾·":765,"æ¸¸":766,"éª":767,"éĩĳ":768,"æ¯Ķ":769,"ä½ı":770,"æĿ¡":771,"çģ":772,"åħĭ":773,"ç½®":774,"Ł³":775,"re":776,"Ġm":777,"ĠO":778,"èº«":779,"éĢļè¿ĩ":780,"ç±»":781,"æĹħ":782,"al":783,"å¦Ĥæŀľ":784,"è¾¾":785,"å¸ĥ":786,"æŁ¥":787,"éĻĲ":788,"ĠG":789,"è¿Ĳ":790,"ä¸ĸ":791,"å¤Ħ":792,"ç»ĵ":793,"è£ħ":794,"ĠF":795,"å¸¦":796,"åĸ":797,"åıª":798,"æ²¡æľī":799,"è·¯":800,"ç§ĳ":801,"ä»Ģ":802,"è¯ģ":803,"åĪĹ":804,"æķĻ":805,"as":806,"é¡¹":807,"ç½ĳç«Ļ":808,"ç¡®":809,"èĥ":810,"æĦŁ":811,"ä»¥åıĬ":812,"éĹ¨":813,"æ¯ı":814,"ç½Ĺ":815,"10":816,"he":817,"æĹ¶éĹ´":818,"ç³»ç»Ł":819,"åĲĦ":820,"ç«ĭ":821,"è®®":822,"æ¬¡":823,"19":824,"ä¸ĵ":825,"é©¬":826,"éĿŀ":827,"Ġic":828,"åı£":829,"ç»Ļ":830,"Ġal":831,"Ġel":832,"è´¨":833,"è¿ĳ":834,"å®¤":835,"et":836,"ä¸ī":837,"ä»·":838,"ç»Ħ":839,"ä»Ģä¹Ī":840,"æ°Ķ":841,"åĪ«":842,"å®¹":843,"è®¤":844,"æĶ¶":845,"å®Į":846,"å·±":847,"åĬ©":848,"çº¦":849,"åŃĺ":850,"åħį":851,"èĩ³":852,"ä¼ł":853,"Ġf":854,"èĩªå·±":855,"at":856,"ç²":857,"åĨ³":858,"å¡":859,"æ³¨":860,"Ġg":861,"æµģ":862,"åľ°åĽ¾":863,"æĶ¾":864,"å¤´":865,"è¯Ń":866,"åĩĨ":867,"åħī":868,"Ġn":869,"éħį":870,"ro":871,"è¿Ľè¡Į":872,"éĽĨ":873,"Ġ/":874,"æº":875,"éĻħ":876,"Ġor":877,"å²":878,"åı°":879,"è¿ĻäºĽ":880,"Ġes":881,"é¢ĺ":882,"ä¸ŃåĽ½":883,"Ġit":884,"åı¯èĥ½":885,"è®©":886,"æĪĳä»¬çļĦ":887,"åıĺ":888,"é¢Ħ":889,"ç»´":890,"åĽŀ":891,"çķĮ":892,"æĶ¯":893,"éĢł":894,"çº§":895,"æ£":896,"æĶ¿":897,"ĠN":898,"éĢĤ":899,"Ġd":900,"æŁ":901,"åį¡":902,"è¯Ŀ":903,"çľŁ":904,"æĬĢæľ¯":905,"ä¸Ńå¿ĥ":906,"é»":907,"èį":908,"åĬŁ":909,"è®¸":910,"å·´":911,"éĩįè¦ģ":912,"åĪĽ":913,"ç©º":914,"æµĭ":915,"å°¼":916,"å¿ħ":917,"ä¹Ĳ":918,"åıĸ":919,"æĭ¬":920,"åĳĬ":921,"å¤į":922,"am":923,"æ¨":924,"åģļ":925,"æĮĩ":926,"å¯¼":927,"åĮħæĭ¬":928,"çĲĥ":929,"åħ°":930,"çĸ":931,"æĸ½":932,"ä¼ĺ":933,"è§Ħ":934,"Ġh":935,"è®º":936,"Ġis":937,"çĽ´":938,"¤Ĳ":939,"å¿«":940,"åĶ":941,"æĽ´å¤ļ":942,"æİ§":943,"é¤Ĳ":944,"æķĪ":945,"æĶ¹":946,"è¿Ļä¸ª":947,"åĦ":948,"ä¸Ķ":949,"åŁİ":950,"ic":951,"ä¸¤":952,"è½¬":953,"ç®¡çĲĨ":954,"ħ§":955,"æĳ":956,"å¥³":957,"é£İ":958,"åĦ¿":959,"es":960,"æ°ĳ":961,"ç«ł":962,"Ġ:":963,"çĭ":964,"å¹¿":965,"èĭ±":966,"è®¾è®¡":967,"çīĩ":968,"æ¨¡":969,"åįģ":970,"æīĵ":971,"ĠW":972,"Ġas":973,"è§ģ":974,"è°ĥ":975,"éªĮ":976,"æĬ¤":977,"åİŁ":978,"åħ±":979,"æºĲ":980,"æ¡Ī":981,"åįİ":982,"æĺ¾ç¤ºåľ°åĽ¾":983,"éĢŁ":984,"å¨":985,"æŃ¥":986,"çīĪ":987,"æĭ©":988,"éĺ¿":989,"è®¾å¤ĩ":990,"éĢīæĭ©":991,"ä½łçļĦ":992,"ä¾¿":993,"éĻ¤":994,"äºĮ":995,"åºĶçĶ¨":996,"éľĢè¦ģ":997,"æĬĬ":998,"åħĪ":999,"å§ĭ":1000,"ĠU":1001,"èİ·":1002,"æĺĵ":1003,"ä¹¦":1004,"å¯Ĩ":1005,"çĶ¨æĪ·":1006,"ĠV":1007,"æ¬¾":1008,"åı·":1009,"è·Ŀ":1010,"Ġ2":1011,"æŀĦ":1012,"é¢ĳ":1013,"åĥ":1014,"Ġet":1015,"åĽ½éĻħ":1016,"çĪ±":1017,"è¯ķ":1018,"éŁ³":1019,"è®¢":1020,"è±":1021,"Ġing":1022,"ch":1023,"é¡µ":1024,"äº«":1025,"æĬ¥":1026,"å½±":1027,"å½¢":1028,"ç¥ŀ":1029,"..":1030,"è¯¦":1031,"Ġv":1032,"é¦Ĩ":1033,"æī¾":1034,"åŃĹ":1035,"æĢ»":1036,"å£«":1037,"èĮ":1038,"è¿ŀ":1039,"âĢĶ":1040,"åĥı":1041,"æ®":1042,"èĻ":1043,"æĪĳçļĦ":1044,"åħįè´¹":1045,"æķ´":1046,"åıĤ":1047,"è¯Ħ":1048,"é¢Ĩ":1049,"ä¸ĸçķĮ":1050,"çħ§":1051,"è½½":1052,"200":1053,"Ġ3":1054,"Ġad":1055,"è½¯":1056,"åĽłä¸º":1057,"ç±³":1058,"åľ£":1059,"æ¢":1060,"å¯ĵ":1061,"ä¹ī":1062,"åħ¬å¯ĵ":1063,"å·²ç»ı":1064,"è®°":1065,"è¯·æ±Ĥ":1066,"è·Ŀç¦»":1067,"ç¾İåĽ½":1068,"çĹ":1069,"Ġk":1070,"èĬ±":1071,"Ġw":1072,"æĲ":1073,"UR":1074,"ä¸ªäºº":1075,"50":1076,"åĨµ":1077,"è§Ĥ":1078,"æĺŁ":1079,"ä¸ľ":1080,"å¼º":1081,"ag":1082,"Ġou":1083,"æ¼":1084,"æĴ":1085,"å®¢æĪ·":1086,"ä»ĸçļĦ":1087,"com":1088,"èĬĤ":1089,"ent":1090,"ä¾ĭ":1091,"çı":1092,"æľª":1093,"åĩ»":1094,"åŁŁ":1095,"åĽ½å®¶":1096,"ä»ħ":1097,"en":1098,"åĽ¢":1099,"ä¸ŃçļĦ":1100,"æĸĩä»¶":1101,"éĹ®é¢ĺ":1102,"ä½İ":1103,"çĬ":1104,"å®īåħ¨":1105,"çłģ":1106,"ç»Ń":1107,"åį³":1108,"åºı":1109,"éĶĢ":1110,"æĻ¯":1111,"ä¼ģ":1112,"èĢ¶":1113,"30":1114,"èĲ¥":1115,"çŁ¥éģĵ":1116,"åł":1117,"æ¸ħ":1118,"Ġil":1119,"é¥":1120,"åĪĩ":1121,"Ġam":1122,"è¯Ĩ":1123,"åıį":1124,"çĶ¨äºİ":1125,"æł¹":1126,"ct":1127,"ç»ľ":1128,"å°ĳ":1129,"ä¸įæĺ¯":1130,"æľīéĻĲ":1131,"el":1132,"çİĩ":1133,"åĢĻ":1134,"ãĢĤâĢĿ":1135,"ä¿®":1136,"çİ¯":1137,"ç¤¾":1138,"ä½įäºİ":1139,"èĢģ":1140,"ä¼ģä¸ļ":1141,"12":1142,"åĨį":1143,"éĻĦ":1144,"il":1145,"ĠK":1146,"é¦ĸ":1147,"ç´¢":1148,"æĿ¿":1149,"Ġed":1150,"çĥŃ":1151,"å£°":1152,"åįĹ":1153,"çļĦäºº":1154,"å¤ª":1155,"åĳ½":1156,"åĽŃ":1157,"ä½łä»¬":1158,"åĩł":1159,"å¸®":1160,"å¸Ī":1161,"éĴŁ":1162,"æĮī":1163,"ç®Ĺ":1164,"æĬķ":1165,"åİĭ":1166,"è¾ĵ":1167,"ä¸ĬçļĦ":1168,"åħ¬éĩĮ":1169,"ç§°":1170,"ç²¾":1171,"åįı":1172,"è¾¹":1173,"åıĪ":1174,"æİ§åĪ¶":1175,"åħĥ":1176,"å¤Ł":1177,"æĪĺ":1178,"è¨":1179,"çĶŁäº§":1180,"è¯·æ±ĤçļĦ":1181,"ou":1182,"ç½ĳç»ľ":1183,"å·ŀ":1184,"ĠSt":1185,"è¿°":1186,"çº³":1187,"æľīéĻĲåħ¬åı¸":1188,"åĢ¼":1189,"åĪĻ":1190,"è´Ń":1191,"ç®Ģ":1192,"è¿Ļæł·":1193,"å¾ĭ":1194,"æ¸©":1195,"è®¿":1196,"å¦Ĥä½ķ":1197,"éĢģ":1198,"è¨Ģ":1199,"æ»¡":1200,"URL":1201,"å°±æĺ¯":1202,"èµ°":1203,"åĨħå®¹":1204,"çİ°åľ¨":1205,"ion":1206,"Ġz":1207,"çĽ¸åħ³":1208,"çĻ½":1209,"å½ķ":1210,"è½®":1211,"èĳ":1212,"è§£åĨ³":1213,"å¼Ģå§ĭ":1214,"ç§ģ":1215,":/":1216,"æĵ":1217,"åįļ":1218,"è´§":1219,"æĿĲ":1220,"èĩ´":1221,"éĩĩ":1222,"æµ´":1223,"æĥħåĨµ":1224,"è§Ī":1225,"è½»":1226,"è¯·æ±ĤçļĦURL":1227,"Ġag":1228,"è¶ħ":1229,"ç§»":1230,"ç¨ĭåºı":1231,"is":1232,"æĶ¯æĮģ":1233,"æŁ¥çľĭ":1234,"11":1235,"æ¶Ī":1236,"Ġol":1237,"é¡»":1238,"åĬŀ":1239,"æŀĹ":1240,"è½¯ä»¶":1241,"ç»Ĩ":1242,"è´£":1243,"åĳ¨":1244,"å±±":1245,"æ´²":1246,"ç¼ĸ":1247,"å¢ĥ":1248,"Ġia":1249,"çłĶ":1250,"ãĢĮ":1251,"ol":1252,"åĲ§":1253,"è¿Ļæĺ¯":1254,"æ´»åĬ¨":1255,"åıĳå±ķ":1256,"ãĢį":1257,"è¶³":1258,"ä»½":1259,"æī¿":1260,"éĻ¢":1261,"åĮĹ":1262,"æ¬¢":1263,"Ġac":1264,"æİ¨":1265,"ote":1266,"å®¢æĪ¿":1267,"otel":1268,"èħ":1269,"ä¸įåĲĮ":1270,"æ³¢":1271,"è®¾æĸ½":1272,"éĤ®":1273,"åĲĹ":1274,"è¯¦æĥħ":1275,"éĥ¨åĪĨ":1276,"è§Ĩé¢ĳ":1277,"åĶ®":1278,"æĪĸèĢħ":1279,"é£Ł":1280,"çļĦä¸Ģ":1281,"15":1282,"å¢ŀ":1283,"å¸Į":1284,"é¾":1285,"æľĽ":1286,"æīį":1287,"åģĩ":1288,"18":1289,"åºĬ":1290,"æĸ¹å¼ı":1291,"äººçļĦ":1292,"æŃ¢":1293,"å¤±":1294,"åĭ":1295,"çª":1296,"åĪĴ":1297,"å¸®åĬ©":1298,"Ġle":1299,"è¦ģæ±Ĥ":1300,"Ġ4":1301,"å±ŀ":1302,"åĪĨéĴŁ":1303,"å¼ķ":1304,"åĬŁèĥ½":1305,"åİĨ":1306,"åĿĩ":1307,"ä»Ĭ":1308,"ä½ľä¸º":1309,"åħ³äºİ":1310,"çŁ":1311,"ä¸ĩ":1312,"çĶµåŃĲ":1313,"çĭ¬":1314,"åĲ¬":1315,"ä»·æł¼":1316,"åıĭ":1317,"å¾Ģ":1318,"æĢİ":1319,"çŃĸ":1320,"åĽ´":1321,"èĥ½å¤Ł":1322,"çĵ":1323,"å¥½çļĦ":1324,"å¼ł":1325,"è§ī":1326,"è¶Ĭ":1327,"ĠåĴĮ":1328,"åĵį":1329,"é¡¹çĽ®":1330,"é²":1331,"éĻ©":1332,"æ·±":1333,"å²Ľ":1334,"ĠÃ":1335,"åĲĪä½ľ":1336,"æļ":1337,"åį°":1338,"æĸ¹æ¡Ī":1339,"æķ°æį®è¡¨":1340,"ac":1341,"Ġ@":1342,"Ġot":1343,"æĹ¶åĢĻ":1344,"åıĮ":1345,"ç»Ī":1346,"åĸľ":1347,"åİħ":1348,"åģľ":1349,"èīº":1350,"ãĢĤ\"":1351,"å®¿":1352,"ç¿":1353,"å¤§çļĦ":1354,"ä¸ĭè½½":1355,")ãĢĤ":1356,"å¦Ī":1357,"çĻ¾":1358,"åĤ":1359,"æĹ©":1360,"ä¿ĿæĬ¤":1361,"ĠX":1362,"ç»ĩ":1363,"ç©¶":1364,"éĿŀå¸¸":1365,"èģĶç³»":1366,"æĢģ":1367,"ç¥¨":1368,"ow":1369,"å¹²":1370,"ç¢":1371,"Â·":1372,"Ġom":1373,"å¸Ĥåľº":1374,"åĽĽ":1375,"æµİ":1376,"æį¢":1377,"æ¬§":1378,"ä½įç½®":1379,"èµĦæĸĻ":1380,"éĺŁ":1381,"éļı":1382,"äº²":1383,"åĲ«":1384,"èĩªå·±çļĦ":1385,"çķĻ":1386,"çľ¼":1387,"èİ·å¾Ĺ":1388,"è®¿éĹ®":1389,"è¿ľ":1390,"æŀģ":1391,"æĻ®":1392,"æľīåħ³":1393,"è±¡":1394,"ä»ĺ":1395,"æĪı":1396,"éĩįè¦ģè¯¦æĥħ":1397,"å¤«":1398,"çļĦåľ°":1399,"16":1400,"æłĩåĩĨ":1401,"Ġid":1402,"æ²»":1403,"å¿ħé¡»":1404,"æ±½":1405,"Ġun":1406,"),":1407,"èı":1408,"å¥Ĺ":1409,"é¢Ħè®¢":1410,"æĸŃ":1411,"äºĨä¸Ģ":1412,"äºĨè§£":1413,"ç¦ı":1414,"å¤§åĪ©":1415,"Ġj":1416,"æĸ°çļĦ":1417,"åŃ©":1418,"å¥¥":1419,"çĽĳ":1420,"æįŁ":1421,"åĵ¥":1422,"age":1423,"æİĴ":1424,"æľºåľº":1425,"éĿł":1426,"æ£Ģ":1427,"ĠY":1428,"ä½³":1429,"å¤ĦçĲĨ":1430,"è¯»":1431,"è¿ŀæİ¥":1432,"åģ¥":1433,"Ġand":1434,"çŁ³":1435,"æĢĿ":1436,"èĪª":1437,"äºĴ":1438,"æ¹":1439,"ä½Ĩæĺ¯":1440,"24":1441,"çĳ":1442,"ĠJ":1443,"æĪĲä¸º":1444,"ç´ł":1445,"id":1446,"km":1447,"å¼Ģåıĳ":1448,"æĵį":1449,"Ġos":1450,"æ´Ĺ":1451,"ä¸»è¦ģ":1452,"åı¦":1453,"ç»ıæµİ":1454,"èĢĥ":1455,"éĻĦè¿ĳ":1456,"ä¼¦":1457,"åĮ»":1458,"èĩªåĬ¨":1459,"åľ°åĮº":1460,"æĭ¥":1461,"å¥¹çļĦ":1462,"èĤ²":1463,"æŃ»":1464,"èµĽ":1465,"æ¸¡":1466,"ashe":1467,"atashe":1468,"ãĢĭ":1469,"è¿ĻéĩĮ":1470,"çĹħ":1471,"å·¥åħ·":1472,"åįĩ":1473,"å¾®":1474,"å±Ĥ":1475,"åĲĮæĹ¶":1476,"ä¹ĭéĹ´":1477,"atasheet":1478,"ãĢĬ":1479,"æĭ¿":1480,"åĿĢ":1481,"çīĻ":1482,"è¿Ļä¸Ģ":1483,"åĨĮ":1484,"oo":1485,"éļ¾":1486,"çıŃ":1487,"Ġig":1488,"æĺ¯ä¸Ģ":1489,"æ¸¸æĪı":1490,"é¾Ļ":1491,"äºĶ":1492,"ä¹°":1493,"åĨĻ":1494,"Ġre":1495,"èĮĥ":1496,"è´Ł":1497,"æŀĲ":1498,"ä½ıå®¿":1499,"çģ«":1500,"17":1501,"25":1502,"è§£åĨ³æĸ¹æ¡Ī":1503,"æ±½è½¦":1504,"æıı":1505,"çĶŁæ´»":1506,"ĠéħĴåºĹ":1507,"ä¼Ĺ":1508,"åĽłæŃ¤":1509,"çīĪæľ¬":1510,"ad":1511,"ç»Ħç»ĩ":1512,"è¡£":1513,"åħ¨çĲĥ":1514,"çĦ¶åĲİ":1515,"èĲ½":1516,"è¯º":1517,"åº§":1518,"åĳ¢":1519,"å®¢äºº":1520,"åŁİå¸Ĥ":1521,"Ġent":1522,"çĻ»":1523,"åĲ¦":1524,"çİĭ":1525,"åĿĲ":1526,"ä»¤":1527,"14":1528,"éĺ²":1529,"In":1530,"åĪ°äºĨ":1531,"éĶĻ":1532,"åı²":1533,"è¿Ļç§į":1534,"Ġro":1535,"ç§Ł":1536,"13":1537,"ft":1538,"çĸĹ":1539,"Ġus":1540,"å°ıæĹ¶":1541,"æł¹æį®":1542,"ä¹ł":1543,"æĺ¯ä¸Ģä¸ª":1544,"å¹¶ä¸Ķ":1545,"ç³»åĪĹ":1546,"å®³":1547,"ä¸ļåĬ¡":1548,"å¨ģ":1549,"æĭ¥æľī":1550,"æ¸¯":1551,"åĨĽ":1552,"å©":1553,"æħ":1554,"ä¸įä¼ļ":1555,"æ³ķå¾ĭ":1556,"ç¬¬ä¸Ģ":1557,"æĭħ":1558,"å¡ŀ":1559,"æ±ł":1560,"80":1561,"çĮ":1562,"ä¸ĢäºĽ":1563,"ç«¯":1564,"çİ¯å¢ĥ":1565,"æĢİä¹Ī":1566,"çģµ":1567,"Page":1568,"åį´":1569,"è¾ĥ":1570,"æ¦":1571,"Ġst":1572,"çĶµè§Ĩ":1573,"æĿĲæĸĻ":1574,"ç®±":1575,"å°½":1576,"éĵ¾":1577,"å¡Ķ":1578,"è´¨éĩı":1579,"äºī":1580,"èĴ":1581,"åħ´":1582,"Ġay":1583,"åĪĨæŀĲ":1584,"000":1585,"å¤§åŃ¦":1586,"ç±»åŀĭ":1587,"em":1588,"åºŃ":1589,"è¿ĩç¨ĭ":1590,"asp":1591,"åħħ":1592,"Ġion":1593,"åºĵ":1594,"æ²Ļ":1595,"åĤ¨":1596,"ĠãĢĤ":1597,"æ²¹":1598,"éľ²":1599,"ä»ĸä»¬çļĦ":1600,"åħ·æľī":1601,"æĲľ":1602,"çĬ¶":1603,"å¯¹äºİ":1604,"éĺ³":1605,"åĺ":1606,"Ġ5":1607,"çīĮ":1608,"æĻº":1609,"Ġur":1610,"çļĦæĺ¯":1611,"Ġim":1612,"åĵª":1613,"å½±åĵį":1614,"çłĶç©¶":1615,"å±Ģ":1616,"éĺħ":1617,"ç¬¬ä¸ī":1618,"æ¿":1619,"çº¢":1620,"çŃ¾":1621,"å®īè£ħ":1622,"Ġch":1623,"æĻļ":1624,"aspx":1625,"Ġ'":1626,"è¯ī":1627,"it":1628,"è®¡åĪĴ":1629,"åį«":1630,"ä»¥ä¸ĭ":1631,"ç´§":1632,"Ġab":1633,"Ġap":1634,"æł¡":1635,"æ¯į":1636,"40":1637,"çĽĬ":1638,"èĲ¨":1639,"å®ŀçİ°":1640,"Ġ6":1641,"ew":1642,"ä¼Ĭ":1643,"èĤ¡":1644,"è¾ĳ":1645,"çĶ·":1646,"åĲĦç§į":1647,"æĿ¾":1648,"ä¸ºäºĨ":1649,"éĻį":1650,"çĿ£":1651,"æ¿Ģ":1652,"Ġéĩįè¦ģè¯¦æĥħ":1653,"ä»ĭ":1654,"æīĺ":1655,"åľ°åĿĢ":1656,"æĵįä½ľ":1657,"æīĢä»¥":1658,"é¡¿":1659,"æĸ¹æ³ķ":1660,"âĢĵ":1661,"é¦Ļ":1662,"Ġ_":1663,"ä¸¾":1664,"åħ¸":1665,"èŀ":1666,"äººåĳĺ":1667,"è¡Įä¸ļ":1668,"and":1669,"ĠIn":1670,"ed":1671,"åĩı":1672,"Ġra":1673,"åĪ¶éĢł":1674,"æ¥":1675,"åº·":1676,"æĿ¥çļĦ":1677,"éĽħ":1678,"è·Ł":1679,"ur":1680,"ä¼¯":1681,"åıĳçİ°":1682,"éº":1683,"å¸Ŀ":1684,"ä¾Ŀ":1685,"æ¼Ķ":1686,"åĬ¿":1687,"æĤ¨åı¯ä»¥":1688,"å·¥ä½ľæĹ¶éĹ´":1689,"èĦĳ":1690,"é»ĳ":1691,"æĸ¹éĿ¢":1692,"æĹħæ¸¸":1693,"æī§":1694,"å¯Į":1695,"æŀ¶":1696,"ia":1697,"ä¼¼":1698,"è®¸å¤ļ":1699,"Ġav":1700,"Ġem":1701,"Ġoo":1702,"è§Ĵ":1703,"ä¸ĵä¸ļ":1704,"Fi":1705,"ĠHotel":1706,"äº¤æĺĵ":1707,"Ġul":1708,"å®Ŀ":1709,"åºľ":1710,"Ġiv":1711,"æľĢä½³":1712,"?âĢĿ":1713,"åª":1714,"ä¾ĽåºĶ":1715,"ĠãĢģ":1716,"Ġak":1717,"å¥ĸ":1718,"æĦıå¤§åĪ©":1719,"og":1720,"éĤ®ä»¶":1721,"è®¡ç®Ĺ":1722,"åĳ³":1723,"çľģ":1724,"é¡µéĿ¢":1725,"æĬķèµĦ":1726,"ç¨£":1727,"æĿĥåĪ©":1728,"èĢ¶ç¨£":1729,"æ®µ":1730,"çºª":1731,"å¿µ":1732,"æĿ¥èĩª":1733,"ç¤¾ä¼ļ":1734,"ort":1735,"èĪ¹":1736,"éļĲ":1737,"åĲ¸":1738,"åķĬ":1739,"æĹłæ³ķ":1740,"ç»Ŀ":1741,"ä¼ļè®®":1742,"é¢Ŀ":1743,"åİĨåı²":1744,"21":1745,"ç»§":1746,"ä¸įèĥ½":1747,"èģĮ":1748,"çĶ±äºİ":1749,"ç¡®ä¿Ŀ":1750,"Ġell":1751,"Ġod":1752,"US":1753,"Ġai":1754,"Ġip":1755,"æŁĲ":1756,"æī¾åĪ°":1757,"ook":1758,"ht":1759,"å¾ħ":1760,"æ½":1761,"å¿Ĺ":1762,"åĲĮæĦı":1763,"çķ¥":1764,"æĶ¿çŃĸ":1765,"ç£":1766,"è®¤ä¸º":1767,"çļĦäºĭ":1768,"çĶ³":1769,"åıĳçĶŁ":1770,"åħ³ç³»":1771,"æ³¨æĦı":1772,"åľŁ":1773,"ĠZ":1774,"ä¾ĭå¦Ĥ":1775,"å±ħ":1776,"éĵģ":1777,"æ³¨åĨĮ":1778,"ip":1779,"æ»©":1780,"æµĭè¯ķ":1781,"ç§¯":1782,"å¯»":1783,"ç¬¦":1784,"Ġir":1785,"éĶ®":1786,"æııè¿°":1787,"æĲľç´¢":1788,"è¯¾":1789,"Ġian":1790,"è®¾æľī":1791,"åĿĹ":1792,"æĿŁ":1793,"åĵĪ":1794,"éĵ¶":1795,"äº¬":1796,"27":1797,"ont":1798,"é¸":1799,"é¤Ĳåİħ":1800,"åı¤":1801,"èĭ¥":1802,"è¿ª":1803,"...":1804,"ay":1805,"çĤ¹åĩ»":1806,"åł¡":1807,"Ġum":1808,"æĦ¿":1809,"åĸĦ":1810,"åįıè®®":1811,"eb":1812,"çĨ":1813,"ä¸½":1814,"ä¼ĳ":1815,"èīºæľ¯":1816,"æ´Ľ":1817,"Ġers":1818,"æĿ¡æ¬¾":1819,"å®Įåħ¨":1820,"Ġx":1821,"èĩªçĶ±":1822,"åĪĽå»º":1823,"åºķ":1824,"éĽ·":1825,"çŃĶ":1826,"åºĶè¯¥":1827,"å¾ĹåĪ°":1828,"éĤ£ä¹Ī":1829,"èµ·æĿ¥":1830,"ç»ĵæŀľ":1831,"èĥĮ":1832,"ä¸¤ä¸ª":1833,"çŃĳ":1834,"æĢ§èĥ½":1835,"èĪį":1836,"å®ĥä»¬":1837,"2016":1838,"æĿ¡ä»¶":1839,"23":1840,"Ġie":1841,"Ġate":1842,"è§Ħå®ļ":1843,"æ¤":1844,"åľ¨çº¿":1845,"æĺ¯åĲ¦":1846,"æµı":1847,"æİĪ":1848,"å¿«éĢŁ":1849,"Ġest":1850,"ç¾¤":1851,"Ġang":1852,"èĪĴ":1853,"æµıè§Ī":1854,"çĽĺ":1855,"éľĢæ±Ĥ":1856,"âĢĶâĢĶ":1857,"åĭĴ":1858,"Ġ9":1859,"ç«¥":1860,"å·¥ç¨ĭ":1861,"éĥ½æĺ¯":1862,"Ġq":1863,"åħŃ":1864,"ç¬ĳ":1865,"æĶ¿åºľ":1866,"åİĤ":1867,"åĪ©çĶ¨":1868,"åŃĺåľ¨":1869,"çĵ¦":1870,"ä¹İ":1871,"å®ĮæĪĲ":1872,"æĳ©":1873,"Ġow":1874,"æĥł":1875,"è¿ĺæĺ¯":1876,"åŁºçĿ£":1877,"ç®Ģåįķ":1878,"60":1879,"åĨ·":1880,"ä¸Ĭæµ·":1881,"è´£ä»»":1882,"çļĦä»»ä½ķ":1883,"çļĦæĹ¶åĢĻ":1884,"èī¯":1885,"ç§»åĬ¨":1886,"Ch":1887,"è°ģ":1888,"æľ¨":1889,"åı«":1890,"è¯¯":1891,"æľºæŀĦ":1892,"å®¶åºŃ":1893,"Ġ7":1894,"äºĳ":1895,"å®ĺ":1896,"åº¦åģĩ":1897,"ing":1898,"Ġard":1899,"å»ºçŃĳ":1900,"æĹħé¦Ĩ":1901,"åŃ©åŃĲ":1902,"ä¸´":1903,"ä¼´":1904,"åħ¶ä¸Ń":1905,"æľ¬ç½ĳç«Ļ":1906,"åŁºç¡":1907,"éĶĢåĶ®":1908,"éĤ£äºĽ":1909,"åŁºç¡Ģ":1910,"ite":1911,"ãĢĤãĢį":1912,"æł¸":1913,"åķĨä¸ļ":1914,"æī§è¡Į":1915,"å¥ĩ":1916,"çľĭåĪ°":1917,"æģ©":1918,"å§Ķ":1919,"Ġto":1920,"èĮĥåĽ´":1921,"ä¼Ļ":1922,"é¡¶":1923,"éŁ":1924,"Ġ0":1925,"æī©":1926,"åľ°æĸ¹":1927,"ç½ª":1928,"æĴŃ":1929,"è¿İ":1930,"ä¹ĭä¸Ģ":1931,"é£ŀ":1932,"å¦ĤæŀľæĤ¨":1933,"å·¥ä¸ļ":1934,"ä¿Ŀè¯ģ":1935,"è¶£":1936,"æıĲé«ĺ":1937,"å§Ĩ":1938,"è¿ĺæľī":1939,"æ¶²":1940,"éŁ³ä¹Ĳ":1941,"é¢ĨåŁŁ":1942,"çĶ»":1943,"å¸Ĳ":1944,"çħ§çīĩ":1945,"æµ´å®¤":1946,"èĹ":1947,"ä¹ħ":1948,"æİ¥åıĹ":1949,"ç¡¬":1950,"åĸľæ¬¢":1951,"æĹı":1952,"åªĴ":1953,"ä¸Ģç§į":1954,"Ġof":1955,"Ġov":1956,"ç¼ĸè¾ĳ":1957,"å°Ħ":1958,"æ³°":1959,"è®¾ç½®":1960,"ot":1961,"çī¹åĪ«":1962,"å¾Īå¤ļ":1963,"±ä¹Ĳ":1964,"è®Ń":1965,"éĹ»":1966,"èµĦæºĲ":1967,"æķĻèĤ²":1968,"è¯Ńè¨Ģ":1969,"æ¸¡è½®":1970,"æ¾":1971,"æĪ¿éĹ´":1972,"èĭ±åĽ½":1973,"å¸ĮæľĽ":1974,"è¯¢":1975,"çĶ¨çļĦ":1976,"åŁĥ":1977,"ä¸Ģèµ·":1978,"æ²³":1979,"ä¹ĭåīį":1980,"æĥħåĨµä¸ĭ":1981,"èĵ":1982,"åĲĥ":1983,"æľīæķĪ":1984,"è´¢":1985,"çİ°ä»£":1986,"ç»ĵæŀĦ":1987,"im":1988,"å®¡":1989,"åĲī":1990,"è®¯":1991,"æķħ":1992,"åĲ¯":1993,"ç¬¬äºĮ":1994,"èŀį":1995,"è®²":1996,"æĽ¾":1997,"ation":1998,"ç§ģäºº":1999,"æ³ķåĽ½":2000,"è´Ŀ":2001,"éĿĻ":2002,"æĪĲåĬŁ":2003,"çĳŀ":2004,"se":2005,"æ°¸":2006,"ä½ĵéªĮ":2007,"ĠER":2008,"åĪ»":2009,"çĽ´æİ¥":2010,"å·®":2011,"åŃ¦ä¹ł":2012,"åĲįç§°":2013,"èį¯":2014,"ĠCh":2015,"åĮºåŁŁ":2016,"ç»§ç»Ń":2017,"çĽĸ":2018,"èĩªçĦ¶":2019,"å¹³åı°":2020,"å°¼äºļ":2021,"æķĳ":2022,"Ġut":2023,"æĸ¯çī¹":2024,"art":2025,"è¿Ĳè¡Į":2026,"æ£®":2027,"æ»¡è¶³":2028,"ce":2029,"ir":2030,"ue":2031,"çĶ³è¯·":2032,"éĢĶ":2033,"åħ¬åĽŃ":2034,"è°¢":2035,"é²ģ":2036,"ä»ª":2037,"ä¸Ģæł·":2038,"åįĬ":2039,"åĨ²":2040,"èĭı":2041,"åĮħåĲ«":2042,"äºĪ":2043,"åħģ":2044,"ä¿Ħ":2045,"æ³³":2046,"åİ¨":2047,"èĪ¬":2048,"è¿ĲåĬ¨":2049,"å¾·åĽ½":2050,"Ġec":2051,"æŃ£åľ¨":2052,"åıªæľī":2053,"icro":2054,"éĵ¾æİ¥":2055,"èĢĮä¸Ķ":2056,"æĸĩåĮĸ":2057,"éĴĪ":2058,"ind":2059,"äº«åıĹ":2060,"æĿĳ":2061,"Ġoc":2062,"ä¸Ĭå¸Ŀ":2063,"èĥ½åĬĽ":2064,"ĠçļĦå·¥ä½ľæĹ¶éĹ´":2065,"éĽĨåĽ¢":2066,"æĬ¥åĳĬ":2067,"ç¿»":2068,"ä¸įè¦ģ":2069,"éŃ":2070,"åĪĿ":2071,"åĿı":2072,"Ġation":2073,"èĨ":2074,"è¿Ľåħ¥":2075,"èĳĹ":2076,"éĩĩçĶ¨":2077,"æ¦Ĥ":2078,"çļĦæīĢæľī":2079,"æİ¢":2080,"éĤ£éĩĮ":2081,"åºĶçĶ¨ç¨ĭåºı":2082,"è¿·":2083,"Ġant":2084,"æ¡£":2085,"Ġong":2086,"çļ®":2087,"è¯ĳ":2088,"éĩĬ":2089,"çĽŁ":2090,"çİ©":2091,"æĽ¼":2092,"ä¿ĿæĮģ":2093,"ä»£è¡¨":2094,"è¶ħè¿ĩ":2095,"ä¸¥":2096,"è¡Ģ":2097,"è¡Įä¸º":2098,"æĺ¯åľ¨":2099,"åŁ¹":2100,"æµ·æ»©":2101,"çŁŃ":2102,"100":2103,"åĨ³å®ļ":2104,"åħģè®¸":2105,"è¡Ĺ":2106,"Ġ&":2107,"è®¨":2108,"ä»į":2109,"æĿĤ":2110,"Ġist":2111,"ä¹ĭåĲİ":2112,"Ġ),":2113,"å¹¿åĳĬ":2114,"é½":2115,"æ·»":2116,"çªģ":2117,"éĺħè¯»":2118,"æĹłçº¿":2119,"22":2120,"æĭŁ":2121,"è±ª":2122,"ng":2123,"çĽ®æłĩ":2124,"èģĶåĲĪ":2125,"ex":2126,"å½©":2127,"ç¤¼":2128,"ç»ıéªĮ":2129,"æĹ©é¤Ĳ":2130,"St":2131,"Ġ8":2132,"ĠÂ":2133,"Ġik":2134,"æķ°åŃĹ":2135,"éĽ¶":2136,"èĦ¸":2137,"ver":2138,"éĢĢ":2139,"åŃ£":2140,"æĹħè¡Į":2141,"å²ģ":2142,"æĮģç»Ń":2143,"Micro":2144,"æ´¾":2145,"æĹ¥æľ¬":2146,"åģ¥åº·":2147,"æ¥¼":2148,"Ġæĺ¯":2149,"å¾Ĵ":2150,"çĶµè¯Ŀ":2151,"å®½":2152,"å¼Ĥ":2153,"ĠRo":2154,"Ad":2155,"ĠQ":2156,"åĽº":2157,"çº½":2158,"äº§çĶŁ":2159,"çĪ¶":2160,"åªĴä½ĵ":2161,"Al":2162,"éĢļçŁ¥":2163,"èģĶç½ĳ":2164,"NE":2165,"åķĨåĬ¡":2166,"èİ±":2167,"åłĤ":2168,"äº®":2169,"çļĦä¿¡æģ¯":2170,"æīĢæľīçļĦ":2171,"å®ľ":2172,"çĶµèĦĳ":2173,"æµĭéĩı":2174,"é±":2175,"è´´":2176,"éĴ¢":2177,"ä¹Łæĺ¯":2178,"èıľ":2179,"èĹı":2180,"åĪļ":2181,"æ¢ħ":2182,"éĨ":2183,"Ġhe":2184,"åŃĺåĤ¨":2185,"åĦ¿ç«¥":2186,"ä½Ľ":2187,"åıĳå¸ĥ":2188,"ark":2189,"æķ´ä¸ª":2190,"ig":2191,"éĢı":2192,"å¦Ĥæŀľä½ł":2193,"ä¸įåĲĮçļĦ":2194,"26":2195,"æľĭ":2196,"æį·":2197,"æĪĲæľ¬":2198,"å®ļçļĦ":2199,"æīĭæľº":2200,"å»ºç«ĭ":2201,"Ġill":2202,"æ¸©åº¦":2203,"æ¾³":2204,"é±¼":2205,"åıĳéĢģ":2206,"èģļ":2207,"æĥ³è¦ģ":2208,"åĳĬè¯ī":2209,"æ¬¢è¿İ":2210,"æ³³æ±ł":2211,"av":2212,"å¸ģ":2213,"ĠDatasheet":2214,"å»ºè®®":2215,"æĶ¶éĽĨ":2216,"æ¬§æ´²":2217,"ä¼Ļä¼´":2218,"åĩºæĿ¥":2219,"åŁºäºİ":2220,"æ¯ıä¸ª":2221,"åĽ¢éĺŁ":2222,"è¾ĵåħ¥":2223,"è´Ńä¹°":2224,"æĻºèĥ½":2225,"åĴĮåįİ":2226,"ä¸įåı¯":2227,"å¯Ł":2228,"åħ¶å®ĥ":2229,"æģ¶":2230,"æĸ°éĹ»":2231,"éļľ":2232,",\"":2233,":\"":2234,"çļĦæľĢ":2235,"åĪł":2236,"è´¦":2237,"ĠAp":2238,"æĹłè®º":2239,"ĠRe":2240,"ç§ĳåŃ¦":2241,"é»Ħ":2242,"åİ¨æĪ¿":2243,"28":2244,"ä¸ºæĤ¨":2245,"æľĭåıĭ":2246,"Ġåľ¨":2247,"å®£":2248,"åıªæĺ¯":2249,"è¯Ħè®º":2250,"èĢ¶åĴĮåįİ":2251,"éĶĻè¯¯":2252,"90":2253,"½çĦ¶":2254,"å±ı":2255,"ĠAN":2256,"ĠAR":2257,"èĤī":2258,"çł´":2259,"ä¸ĥ":2260,"çļĦå¤§":2261,"æ´ģ":2262,"åĩºçİ°":2263,"åĿļ":2264,"æĽ´æĸ°":2265,"ç»ĵæĿŁ":2266,"Ġfor":2267,"åĩĨå¤ĩ":2268,"æĺŁçº§":2269,"æ·»åĬł":2270,"Ġ\"":2271,"å©ļ":2272,"åĪłéĻ¤":2273,"å¹ķ":2274,"nter":2275,"é©±":2276,"éĵ¶è¡Į":2277,"å±ĭ":2278,"ä¿ĿéĻ©":2279,"éĴ±":2280,"ä¼łç»Ł":2281,"é»İ":2282,"çļĦéħĴåºĹ":2283,"åĨ°":2284,"éĿĴ":2285,"æ±ĩ":2286,"åĪ©äºļ":2287,"é²ľ":2288,"èĪĴéĢĤ":2289,"Datasheet":2290,"ä¼¤":2291,"è´¸":2292,"åĵģçīĮ":2293,"ç§ĳæĬĢ":2294,"éĢĤçĶ¨äºİ":2295,"æĳĦ":2296,"åİŁåĽł":2297,"æ¢°":2298,"æĴĴ":2299,"éļĲç§ģ":2300,"é¡¾":2301,"åŃ¦çĶŁ":2302,"åĪĽæĸ°":2303,"çĶµåŃĲéĤ®ä»¶":2304,"å®Ĺ":2305,"æĿĢ":2306,"æłĳ":2307,"ment":2308,"çĶļ":2309,"æĢ§çļĦ":2310,"éĿ¢çļĦ":2311,"Ġif":2312,"çº¸":2313,"çĶŁåĳ½":2314,"éħįç½®":2315,"è´µ":2316,"ç¨³":2317,"æıĲä¾ĽçļĦ":2318,"åĢŁ":2319,"è´¹çĶ¨":2320,"æŁĵ":2321,"è®¸åı¯":2322,"è¯¦ç»Ĩ":2323,"æľįåĬ¡åĻ¨":2324,"çŁ¥è¯Ĩ":2325,"æī¹":2326,"Ġop":2327,"æľºä¼ļ":2328,"è°·":2329,"åĨľ":2330,"å¹´çļĦ":2331,"æĹħèĪį":2332,"å¢ŀåĬł":2333,"Wi":2334,"ä½Ļ":2335,"æĥĬ":2336,"è¯´æĺİ":2337,"èĵĿ":2338,"åĳĺå·¥":2339,"An":2340,"åĬ³":2341,"æĤ¨åľ¨":2342,"ç¨İ":2343,"ç¼©":2344,"ç¬¬ä¸īæĸ¹":2345,"çļĦè¯Ŀ":2346,"å®¾":2347,"ä¸ĢçĽ´":2348,"éħĴåºĹçļĦ":2349,"çĽ®åīį":2350,"Ġth":2351,"Ġall":2352,"é¥®":2353,"åĮĹäº¬":2354,"35":2355,"ç¦ģ":2356,"ä¸įæĸŃ":2357,"ä¸»ä¹ī":2358,"The":2359,"è¸":2360,"æĹ§":2361,"åī§":2362,"åīĤ":2363,"æŃ¥è¡Į":2364,"èĻĳ":2365,"ate":2366,"ost":2367,"ç»į":2368,"è¡¨ç¤º":2369,"å½ĵåľ°":2370,"Ġ10":2371,"èĦļ":2372,"æīĵå¼Ģ":2373,"70":2374,"èĽ":2375,"åįĥ":2376,"å¯¸":2377,"ä½łåı¯ä»¥":2378,"èİ«":2379,"åı¯èĥ½ä¼ļ":2380,"è§¦":2381,"è°Ī":2382,"çģ¯":2383,"Wind":2384,"ä¸Ģä¸ĭ":2385,"2015":2386,"æĦŁè§ī":2387,"ç½Ĺæĸ¯":2388,"ows":2389,"ç¯":2390,"åĩºçļĦ":2391,"åħ¥ä½ı":2392,"å¡ĳ":2393,")-":2394,"ä¸°":2395,"ä¸ĢæŃ¥":2396,"2014":2397,"æĶ¹åıĺ":2398,"å°º":2399,"ä¹ĺ":2400,"å®ŀéĻħ":2401,"éĢĤåĲĪ":2402,"å¦Īå¦Ī":2403,"¢å¤į":2404,"é¼":2405,"ä¸ºä»Ģä¹Ī":2406,"åĿ¦":2407,"æ¡Į":2408,"æ··":2409,"é»ĺ":2410,"æ®Ĭ":2411,"èĻļ":2412,"å¤ľ":2413,"ä¿ĥ":2414,"èĢ³":2415,"æģ¢å¤į":2416,"ĠIN":2417,"199":2418,"å¯Ĩçłģ":2419,"å§Ķåĳĺ":2420,"çĩ":2421,"ä¸ĢåĪĩ":2422,"Ġob":2423,"åĪĨäº«":2424,"æľĢåĲİ":2425,"åħ¨éĥ¨":2426,"oft":2427,"æ´ĭ":2428,"èº«ä½ĵ":2429,"çªĹ":2430,"ry":2431,"å®Ī":2432,"è¿Ķ":2433,"ä»·åĢ¼":2434,"ap":2435,"èŃ":2436,"æıĴ":2437,"å»¶":2438,"ä»£çłģ":2439,"ä¸ĵå®¶":2440,"ĠéĻĦè¿ĳ":2441,"åħ»":2442,"è·³":2443,"æ»ĳ":2444,"ä¸ľè¥¿":2445,"è´Łè´£":2446,"è¿Ļä¹Ī":2447,"åħ¬åħ±":2448,"èĦ±":2449,"è¾¾åĪ°":2450,"ack":2451,"äºĴèģĶç½ĳ":2452,"éĿ©":2453,"å¦ĤæŃ¤":2454,"æĪĲåĳĺ":2455,"å¯¼èĩ´":2456,"èĻ½çĦ¶":2457,"ä»Ĭå¤©":2458,"33":2459,"æĽ²":2460,"ĠIS":2461,"ä¼łæĦŁ":2462,"éħįæľī":2463,"æ¨¡å¼ı":2464,"é¦Ļæ¸¯":2465,"æ¯Ĵ":2466,"å¹¶ä¸į":2467,"éĢīé¡¹":2468,"çĶļèĩ³":2469,"æŃĮ":2470,"ĠAT":2471,"æĬĹ":2472,"ç«ŀ":2473,"çĥŁ":2474,"åıĤä¸İ":2475,"ss":2476,"æĮĳ":2477,"åŃ¦æł¡":2478,"äººæ°ĳ":2479,"æľºæ¢°":2480,"æ¯Ľ":2481,"éģ¿":2482,"çļĦçĪ":2483,"æĹ¥æľŁ":2484,"æ°´å¹³":2485,"ĠÂ®":2486,"Windows":2487,"us":2488,"çļĦä¸Ģä¸ª":2489,"è¿½":2490,"åĬłåħ¥":2491,"æŃ¤å¤ĸ":2492,"çļĦåľ°æĸ¹":2493,"èŃ¦":2494,"ub":2495,"åħļ":2496,"è¯į":2497,"ä¼°":2498,"çī¹æ®Ĭ":2499,"è´Ńçī©":2500,"Ġä¸Ĭ":2501,"çĽ¸åħ³çļĦ":2502,"ä¼łæĦŁåĻ¨":2503,"\"ãĢĤ":2504,"29":2505,"åı¯éĿł":2506,"æĬĺ":2507,"ork":2508,"ĠDe":2509,"æŃ£ç¡®":2510,"åĴĸ":2511,"ä¸įè¿ĩ":2512,"æĢĢ":2513,"éĻĲåĪ¶":2514,"ç©ºè°ĥ":2515,"ä»ĭç»į":2516,"¡èĲ":2517,"ä¸Ģæ¬¡":2518,"Ġeb":2519,"è½´":2520,"æĶ¯ä»ĺ":2521,"è®°å½ķ":2522,"åģľè½¦":2523,"36":2524,"åĳ¼":2525,"åķ¡":2526,"çľĭçĿĢ":2527,"èį£":2528,"ä¼ĺæĥł":2529,"é©±åĬ¨":2530,"ä¸Ŀ":2531,"Ġah":2532,"Ġib":2533,"å¼¹":2534,"æķ¦":2535,"æĿ¥è¯´":2536,"åĮĸçļĦ":2537,"å¨±ä¹Ĳ":2538,"åĴĸåķ¡":2539,"å°ļ":2540,"ä¸ĢèĪ¬":2541,"å¸Ń":2542,"ä»İèĢĮ":2543,"ç½Ĺé©¬":2544,"ist":2545,"éĩİ":2546,"è¿ĩåİ»":2547,"Ġse":2548,"çĶµå½±":2549,"çĽ®çļĦ":2550,"è¥¿çıŃ":2551,"æľŁéĹ´":2552,"ç©ºéĹ´":2553,"è¥¿çıŃçīĻ":2554,"PD":2555,"å°ģ":2556,"ä¸Ģå®ļ":2557,"ä¸įä»ħ":2558,"éĻĨ":2559,"éĢļå¸¸":2560,"æ¸¸æ³³æ±ł":2561,"çº½çº¦":2562,"ram":2563,"éĹŃ":2564,"åĩºäºĨ":2565,"è£ģ":2566,"è®¤è¯ģ":2567,"åĩıå°ĳ":2568,"æ½ľ":2569,"å®¶éħĴåºĹ":2570,"ä¹Łä¸į":2571,"çľŁæŃ£":2572,"å½¢å¼ı":2573,"é£Łåĵģ":2574,"to":2575,"ä¸¹":2576,"è¿Ŀ":2577,"è¡¥":2578,"ä»¥èī²":2579,"ç²ī":2580,"é£İæł¼":2581,"çĬ¯":2582,"é¥°":2583,"èĢĥèĻĳ":2584,"éº¦":2585,"ä»¥èī²åĪĹ":2586,"AS":2587,"Ġex":2588,"ä½ľçĶ¨":2589,"éĥ¨éĹ¨":2590,"çĭ¬ç«ĭ":2591,"å§Ķåĳĺä¼ļ":2592,"du":2593,"pl":2594,"åĪ¤":2595,"å·¨":2596,"2012":2597,"çľŁçļĦ":2598,"å¹¿åľº":2599,"èĭ±è¯Ń":2600,"æ£Ģæµĭ":2601,"45":2602,"Tr":2603,"ĠAS":2604,"ĠEN":2605,"Ġne":2606,"èĳ¡èĲ":2607,"åįļçī©":2608,"è®¡ç®Ĺæľº":2609,"èĳ¡èĲĦ":2610,"èĸ":2611,"åı³":2612,"å½Ĵ":2613,"å¦ĩ":2614,"ä¾Ľè´§":2615,"åħ«":2616,"æıĲäº¤":2617,"çļĦç¥":2618,"çļĦçģ":2619,"éŁ©":2620,"å³":2621,"åĬª":2622,"èĢĲ":2623,"ä½ľåĵģ":2624,"æĪĲçļĦ":2625,"Ġart":2626,"åıĹåĪ°":2627,"èĬ±åĽŃ":2628,"ä¿®æĶ¹":2629,"å¢ŀéķ¿":2630,"æ¹¾":2631,"Un":2632,"ä¹Į":2633,"ä¹Ŀ":2634,"å¸ķ":2635,"æĶ»":2636,"æľĢè¿ĳ":2637,"åĪĽéĢł":2638,"é¢Ĩå¯¼":2639,"éĻįä½İ":2640,"åŁ¹è®Ń":2641,"åįļçī©é¦Ĩ":2642,"Av":2643,"ech":2644,"åį±":2645,"åı¯ä»¥åľ¨":2646,"çĸĳ":2647,"èİ·åıĸ":2648,"æī¿æĭħ":2649,"å¸ĲæĪ·":2650,"Re":2651,"ç»ĥ":2652,"æĿİ":2653,"ä¸ªæľĪ":2654,"å¤ļæķ°":2655,"éģµ":2656,"èĭ¦":2657,"ity":2658,"ç¿»è¯ĳ":2659,"55":2660,"op":2661,"ç»¿":2662,"æľīäºĽ":2663,"ç¬¦åĲĪ":2664,"Bl":2665,"ail":2666,"åī¯":2667,"ĠSh":2668,"èį·":2669,"é£İéĻ©":2670,"USD":2671,"ast":2672,"Ġiz":2673,"åįł":2674,"äººä»¬":2675,"æĢ¥":2676,"å®ļä¹ī":2677,"é«ĺçº§":2678,"æ¯Ķè¾ĥ":2679,"èĲ¥éĶĢ":2680,"åĲĪä½ľä¼Ļä¼´":2681,"è¯¾ç¨ĭ":2682,"æµª":2683,"éĤ£ä¸ª":2684,"çĤ¹è¯Ħ":2685,"å½ĵåīį":2686,"èĤ¯":2687,"èĥ¶":2688,"æµģç¨ĭ":2689,"é½Ĳ":2690,"ab":2691,"ä¸įåĪ°":2692,"éĤ¦":2693,"æıĲä¾ĽäºĨ":2694,"Ġend":2695,"åİĭåĬĽ":2696,"éĴĪå¯¹":2697,"çŀ":2698,"åħ³éĶ®":2699,"Ġpl":2700,"ĠStre":2701,"è´¸æĺĵ":2702,"ä¼ļåĳĺ":2703,"åĬłå·¥":2704,"ä¿ĿçķĻ":2705,"ä»£çĲĨ":2706,"ä¾Ľè´§åķĨ":2707,"Su":2708,"Ġio":2709,"æľīçļĦ":2710,"åį§":2711,"æĸ¹ä¾¿":2712,"ç¦»å¼Ģ":2713,"å®Įæķ´":2714,"è½¬æį¢":2715,"ä¸ªäººèµĦæĸĻ":2716,"æ²»çĸĹ":2717,"ä¹ĭéĹ´çļĦ":2718,"èĴĻ":2719,"Ap":2720,"Ar":2721,"ST":2722,"TM":2723,"åĨħéĥ¨":2724,"Ġter":2725,"ç¡®å®ļ":2726,"çĻ»å½ķ":2727,"Inst":2728,"Pro":2729,"éħĴåĲ§":2730,"Ġour":2731,"æ£ĢæŁ¥":2732,"ä¿Ħç½Ĺæĸ¯":2733,"è´¦æĪ·":2734,"èª":2735,"éĺ´":2736,"ĠCent":2737,"çļĦçĥ":2738,"çĦ¶èĢĮ":2739,"è±ªåįİ":2740,"ä¹³":2741,"æĬ±":2742,"æĬ½":2743,"åĨħçļĦ":2744,"å±ķç¤º":2745,"ä¸ģ":2746,"åį¢":2747,"åĩĢ":2748,"æĬµ":2749,"èµı":2750,"æĽ´æĶ¹":2751,"éĩįæĸ°":2752,"èĪŀ":2753,"å¢¨":2754,"åĦ¿åŃĲ":2755,"ill":2756,"å¥ĹæĪ¿":2757,"æħ¢":2758,"çĮ®":2759,"PDF":2760,"IP":2761,"soft":2762,"å®«":2763,"å¤ı":2764,"Ġain":2765,"å¾Ħ":2766,"æĭľ":2767,"æİª":2768,"æľºåĻ¨":2769,"æľĢé«ĺ":2770,"çĲĨæĥ³":2771,"ç¬Ķ":2772,"çļĦçĻ":2773,"2017":2774,"è§īå¾Ĺ":2775,"å®ģ":2776,"éĢĴ":2777,"å½¼":2778,"Ġub":2779,"éģĹ":2780,"éĢŁåº¦":2781,"75":2782,"ä¸įçŁ¥éģĵ":2783,"æ³Ľ":2784,"åĩºåı£":2785,"å¼ĢæĶ¾":2786,"åĢĴ":2787,"Ġper":2788,"ä¸ĸçºª":2789,"å¿ħè¦ģ":2790,"od":2791,"çļĦå·¥ä½ľ":2792,"Ġog":2793,"çİĽ":2794,"å¤ļä¸ª":2795,"æ±ī":2796,"ç»ıè¿ĩ":2797,"Ġde":2798,"åį°åº¦":2799,"åĮ»çĸĹ":2800,"File":2801,"ĠStreet":2802,"çļĩ":2803,"ä¸įå¾Ĺ":2804,"ä¸ĭæĿ¥":2805,"èĩªè¡Į":2806,"å£ģ":2807,"é¥Ń":2808,"ç¤¾åĮº":2809,"æ¶Īè´¹":2810,"æļ´":2811,"iv":2812,"åįĪ":2813,"çĶ¨éĢĶ":2814,"è¿ĻéĹ´":2815,"Ġug":2816,"ĠAC":2817,"éķľ":2818,"åŁºæľ¬":2819,"è½»æĿ¾":2820,"åĬŀåħ¬":2821,"èĴĤ":2822,"å¯»æī¾":2823,"çīĽ":2824,"ç½ĳé¡µ":2825,"å½ĵçĦ¶":2826,"éĻ¤äºĨ":2827,"åıĤåĬł":2828,"Hotel":2829,"äº¿":2830,"æľīä¸Ģä¸ª":2831,"ç§ĺ":2832,"åĬłæĭ¿":2833,"ç¼º":2834,"ç»´åŁº":2835,"æľªæĿ¥":2836,"ä¾ĽåºĶåķĨ":2837,"Microsoft":2838,"ĠæĪĸ":2839,"æľĿ":2840,"å¿ĺ":2841,"æĪĳä»¬åľ¨":2842,"è¡ĮåĬ¨":2843,"éĺ¶":2844,"è½¦ç¨ĭ":2845,"2018":2846,"éĩĳå±ŀ":2847,"æī©å±ķ":2848,"NET":2849,"HP":2850,"Ġåħ¬å¯ĵ":2851,"æķ£":2852,"åºĶå½ĵ":2853,"èī¾":2854,"åĽ¾çīĩ":2855,"åĽ¾åĥı":2856,"2013":2857,"Ġess":2858,"Ġity":2859,"æķĪæŀľ":2860,"æįŁå¤±":2861,"ä½©":2862,"åįĸ":2863,"é¡º":2864,"æľĢå¤§":2865,"ĠCl":2866,"åķĨæłĩ":2867,"ç©¿":2868,"éļĶ":2869,"æł·çļĦ":2870,"æłĩçŃ¾":2871,"éĩĳèŀį":2872,"ç«ĭåį³":2873,"ä¸ªäººä¿¡æģ¯":2874,"æĮīçħ§":2875,"è¿ĩç¨ĭä¸Ń":2876,"åĪ·":2877,"æĽ¿":2878,"ä¿ĿåŃĺ":2879,"å¸Ĥä¸Ńå¿ĥ":2880,"ä»¤äºº":2881,"å¼Ł":2882,"éĺ»":2883,"Ġine":2884,"å®¹æĺĵ":2885,"éħįå¤ĩ":2886,"æ¹ĸ":2887,"æ¤į":2888,"artment":2889,"duct":2890,"ant":2891,"Ġure":2892,"çĶŁçī©":2893,"Ġsk":2894,"åıĬåħ¶":2895,"éģĩ":2896,"æ¡Ĩ":2897,"ĠBe":2898,"èĥľ":2899,"åĩĨç¡®":2900,"æİĪæĿĥ":2901,"Sh":2902,"äº¡":2903,"Ġast":2904,"ä¾µ":2905,"æ´ŀ":2906,"æķ°éĩı":2907,"åĿ¡":2908,"åıĺåĮĸ":2909,"åħ±åĲĮ":2910,"åľĨ":2911,"ä¸Ńæĸĩ":2912,"æŃ¦":2913,"é¢ľ":2914,"Ġuc":2915,"çĿ¡":2916,"æĽ´åĬł":2917,"åķĨåĵģ":2918,"å¸¦æĿ¥":2919,"çļĦæĹ¶éĹ´":2920,"åĴ¨":2921,"æľīä¸Ģ":2922,"å¾ģ":2923,"ç§Ģ":2924,"æĢķ":2925,"è¿Ľä¸ĢæŃ¥":2926,"åķĨåºĹ":2927,"Ġce":2928,"å¢Ļ":2929,"è¿Ĳè¾ĵ":2930,"ç»´æĬ¤":2931,"éļıçĿĢ":2932,"32":2933,"38":2934,"th":2935,"èľ":2936,"ç«Ł":2937,"åīįå¾Ģ":2938,"åĬĽçļĦ":2939,"lect":2940,"ang":2941,"çĽ¸ä¿¡":2942,"èī²çļĦ":2943,"ĠéĻĦè¿ĳéħĴåºĹ":2944,"åį§å®¤":2945,"åı¯åľ¨":2946,"åı¯çĶ¨":2947,"æĪĸåħ¶ä»ĸ":2948,"è¾Ĩ":2949,"æ¯«":2950,"åĪ¶ä½ľ":2951,"ĠPro":2952,"å¢ħ":2953,"åĺ´":2954,"åĴ¨è¯¢":2955,"Ġud":2956,"æ°§":2957,"æĢ§åĴĮ":2958,"äºļæ´²":2959,"ĠON":2960,"éĽĨæĪĲ":2961,"å²¸":2962,"èįī":2963,"åħ¼":2964,"åĪĢ":2965,"éĹ²":2966,"å¤§å¤ļæķ°":2967,"æľĢæĸ°":2968,"ĠID":2969,"éķĩ":2970,"ĠOS":2971,"è·¯ç¨ĭ":2972,"çĬ¹":2973,"ç£ģ":2974,"ä¼ĳæģ¯":2975,"ĠRoad":2976,"ç¯ĩ":2977,"31":2978,"34":2979,"çļĦäº§åĵģ":2980,"Ġaf":2981,"å°Ŀ":2982,"æĤ£":2983,"ĠEx":2984,"å¹³åĿĩ":2985,"è¥¿äºļ":2986,"åĪ«å¢ħ":2987,"å®Įç¾İ":2988,"åıĸå¾Ĺ":2989,"æ¼«":2990,"Ġage":2991,"æŁĲäºĽ":2992,"Sp":2993,"min":2994,"Ġ+":2995,"åı¯æĺ¯":2996,"ä¸ĭåĪĹ":2997,"åĬ¨çī©":2998,"çĥĪ":2999,"äº¤éĢļ":3000,"ame":3001,"æ¢¦":3002,"åĿĲèĲ½":3003,"é¸¡":3004,"99":3005,"å·¦":3006,"å¼Ĺ":3007,"æĭį":3008,"æľĢå¥½çļĦ":3009,"ç½ĳä¸Ĭ":3010,"left":3011,"æ·ĭ":3012,"ç¡®è®¤":3013,"ä¼ĺåĮĸ":3014,"åĶ¯":3015,"å¹¿æ³Ľ":3016,"é¦ĸé¡µ":3017,"å£°æĺİ":3018,"æī£":3019,"å¹¸":3020,"çº¯":3021,"ĠSu":3022,"éĽª":3023,"ä¸»é¢ĺ":3024,"ĠTM":3025,"å§Ĳ":3026,"æł¼å¼ı":3027,"æ£Ĵ":3028,"å£°éŁ³":3029,"èĤ¡ä»½":3030,"æİªæĸ½":3031,"åĬłæĭ¿å¤§":3032,"æī«":3033,"ä»¥ä¸Ĭ":3034,"äº§ä¸ļ":3035,"ä½¿çĶ¨çļĦ":3036,"ç¾İåħĥ":3037,"are":3038,"æķĻä¼ļ":3039,"um":3040,"å°¤":3041,"å¥¶":3042,"æĭĽ":3043,"æıĲåįĩ":3044,"çļĦç©":3045,"onic":3046,"æĻ¯çĤ¹":3047,"èı²":3048,"ä¼Ł":3049,"Ġew":3050,"æķı":3051,"å¤§éĩı":3052,"å¹´è½»":3053,"éĿ¢åīį":3054,"æĸĩé¾Ļ":3055,"èĢħçļĦ":3056,"æ¶ī":3057,"çľŁå®ŀ":3058,"çĹĽ":3059,"æµıè§ĪåĻ¨":3060,"Ph":3061,"Ġont":3062,"èĥ½æºĲ":3063,"éĺµ":3064,"åģ¿":3065,"çĤī":3066,"å®ĥçļĦ":3067,"çĽ¸åĲĮ":3068,"åħ´è¶£":3069,"éĨĴ":3070,"èĽĭ":3071,"Th":3072,"æľĹ":3073,"è¯ļ":3074,"Ġies":3075,"Ġok":3076,"æľĢç»Ī":3077,"è¯·æ³¨æĦı":3078,"ç¥Ĥ":3079,"æ¡¥":3080,"åĲįçļĦ":3081,"æļĹ":3082,"çĬ¶æĢģ":3083,"ä¸°å¯Į":3084,"est":3085,"å¤ļç§į":3086,"Ġber":3087,"è¿ĲèĲ¥":3088,"å¤įæĿĤ":3089,"æ¨¡åĿĹ":3090,"çŁ¿":3091,"éĿłè¿ĳ":3092,"åı¦å¤ĸ":3093,"è®¨è®º":3094,":âĢľ":3095,"?ãĢį":3096,"åĬ±":3097,"ç½²":3098,"éĻĪ":3099,"æĿ¥åĪ°":3100,"çĶµæºĲ":3101,"éĩįè¦ģçļĦ":3102,"åľ°çĤ¹":3103,"èµĶ":3104,"Ġsh":3105,"åĪĹè¡¨":3106,"è°ĥæķ´":3107,"éĺ¿å°Ķ":3108,"Ġqu":3109,"ob":3110,"åįĵ":3111,"äººç±»":3112,"æ±Ł":3113,"æĪĲç«ĭ":3114,"åī²":3115,"ĠIT":3116,"org":3117,"é©¾":3118,"æķĪçİĩ":3119,"èĪªç©º":3120,"74":3121,"ut":3122,"å°Ĭ":3123,"ä½łæĺ¯":3124,"å·¥èīº":3125,"ĠCom":3126,"åŃ¦éĻ¢":3127,"äºĭæĥħ":3128,"åĮħè£ħ":3129,"Ġass":3130,"åį³ä½¿":3131,"éĩĩåıĸ":3132,"çĻ¾ç§ĳ":3133,"ĠInn":3134,"ç¨³å®ļ":3135,"ON":3136,"è¦":3137,"Ġ$":3138,"çļĦæľįåĬ¡":3139,"æĸĹ":3140,"çİ»":3141,"éĶģ":3142,"ĠBl":3143,"çĥ§":3144,"èº«ä¸Ĭ":3145,"æĳ¸":3146,"æ¨¡åŀĭ":3147,"äº«æľī":3148,"çģ«è½¦":3149,"å°½ç®¡":3150,"æ¾³å¤§åĪ©":3151,"æ©":3152,"åĽ°":3153,"ä¸ĭçļĦ":3154,"ĠAL":3155,"æĻ¶":3156,"è¡¨éĿ¢":3157,"å®ŀéªĮ":3158,"ord":3159,"ĠPl":3160,"æ¶¦":3161,"æĶ¿æ²»":3162,"çĽ´åĪ°":3163,"è°ĥæŁ¥":3164,"åħ±äº«":3165,"å¤ªéĺ³":3166,"æ¯įäº²":3167,"ĠApartment":3168,"çļĦçĥŃ":3169,"åľ¨è¿Ļ":3170,"éĺĢ":3171,"æľ¬æľįåĬ¡":3172,"çī¹å®ļ":3173,"çļĦç²":3174,"ç¼ĵ":3175,"éķ¿æľŁ":3176,"åĲĦé¡¹":3177,"åıĺå¾Ĺ":3178,"å¥³äºº":3179,"ç¥ŀçļĦ":3180,"our":3181,"æ¾³å¤§åĪ©äºļ":3182,"å¤®":3183,"çĽĽ":3184,"æ²ī":3185,"ĠST":3186,"çĲĨè§£":3187,"åħ¬åı¸çļĦ":3188,"éĴ»":3189,"Ġens":3190,"æĽ´å¤ļçļĦ":3191,"çĭ¬çī¹":3192,"å°ºå¯¸":3193,"\",":3194,"AD":3195,"Ġial":3196,"èµ«":3197,"åĩºåĶ®":3198,"å°Ĩä¼ļ":3199,"æĸĩç«ł":3200,"ĠLE":3201,"å±ŀäºİ":3202,"ç§Łè½¦":3203,"åĬªåĬĽ":3204,"echn":3205,"åĽ½åĨħ":3206,"åĪ°è¾¾":3207,"å¹¶åľ¨":3208,"çĪ¸":3209,"Ġlin":3210,"èĮ¶":3211,"åĩłä¹İ":3212,"åģ¥èº«":3213,"èĥĮæĻ¯":3214,"èĻļæĭŁ":3215,"æĮĳæĪĺ":3216,"çĴ":3217,"ä¼¸":3218,"éħ¸":3219,"æĤ¨åĲĮæĦı":3220,"âĢ¢":3221,"ĠAM":3222,"æĦıåĳ³":3223,"è¯ģæĺİ":3224,"ä¸ĵåĪ©":3225,"æīĵåį°":3226,"æīįèĥ½":3227,"çĨŁ":3228,"TML":3229,"AC":3230,"æĹĭ":3231,"æĸ¯åĿ¦":3232,"ĠIC":3233,"ä»»åĬ¡":3234,"çļĦçł":3235,"ä½ĵçļĦ":3236,"æ¡ĳ":3237,"Ġick":3238,"Ġish":3239,"icon":3240,"åħĪçĶŁ":3241,"ç£¨":3242,"ç»´åŁºçĻ¾ç§ĳ":3243,"48":3244,"Tem":3245,"çļĦå°ı":3246,"æĹ¨":3247,"äºĨä¸Ģä¸ª":3248,"äººåĴĮ":3249,"Ġust":3250,"ä¿¡çĶ¨":3251,"åħ³æ³¨":3252,"çľĭè§ģ":3253,"Ġina":3254,"å®ŀæĸ½":3255,"é©¶":3256,"è§£éĩĬ":3257,"æĽ´å¤ļä¿¡æģ¯":3258,"PC":3259,"ox":3260,"çļĦæĸ¹å¼ı":3261,"ä»ĸè¯´":3262,"è¡ĮçļĦ":3263,"è¾ħ":3264,"ĠSe":3265,"èģĬ":3266,"è®¤è¯Ĩ":3267,"å·´é»İ":3268,"è§ĦåĪĻ":3269,"ä¾¿å®ľ":3270,"é¢Ŀå¤ĸ":3271,"éģ¿åħį":3272,"ä¹±":3273,"æĹ¢":3274,"æı´":3275,"ĠSer":3276,"è·ĳ":3277,"æĦıæĢĿ":3278,"äºĭå®ŀ":3279,"çĥ¤":3280,"ç»ĵåĲĪ":3281,"ouse":3282,"ä¼¦æķ¦":3283,"åĲ¯åĬ¨":3284,"39":3285,"De":3286,"ud":3287,"çļĦæĥħåĨµä¸ĭ":3288,"å¤¹":3289,"åĴĮåħ¶ä»ĸ":3290,"æĪĳæĥ³":3291,"æīĢéľĢ":3292,"æ¸Ĳ":3293,"åĵģè´¨":3294,"ĠEL":3295,"åĸ·":3296,"çĸ¾":3297,"æ¶Īæģ¯":3298,"NT":3299,"ä¾§":3300,"æ¬£":3301,"åģı":3302,"åĿĽ":3303,"ç¾İä¸½":3304,"éĴ¥":3305,"å§ĵ":3306,"2011":3307,"Ġeng":3308,"æĦŁè°¢":3309,"ç©ºæ°Ķ":3310,"åı¦ä¸Ģ":3311,"çļĦä½įç½®":3312,"åľ¨è¿ĻéĩĮ":3313,"å°±ä¼ļ":3314,"éĢļä¿¡":3315,"ä¹Łåı¯ä»¥":3316,"Ġann":3317,"Ġond":3318,"èĦı":3319,"æĮĩåįĹ":3320,"æĦıåĳ³çĿĢ":3321,"65":3322,"Ġæĸĩä»¶":3323,"è¿Ī":3324,"çĶ²":3325,"åĴĮå¹³":3326,"æĿ°":3327,"ä»¥åīį":3328,"æĭĴ":3329,"èµĸ":3330,"Ġly":3331,"ä¸īä¸ª":3332,"çĹĩ":3333,"æ¹¿":3334,"å±Ĭ":3335,"ĠIP":3336,"éĥ½ä¼ļ":3337,"äºĭä»¶":3338,"èº«ä»½":3339,"éĢłæĪĲ":3340,"ĠÃ©":3341,"æĴŃæĶ¾":3342,"WiFi":3343,"çĩĥ":3344,"\"(":3345,"37":3346,"iew":3347,"çļĦæĸ°":3348,"çļĦéĹ®é¢ĺ":3349,"ç»ĺ":3350,"å¼ĥ":3351,"æİī":3352,"æĸ¹åĲĳ":3353,"æľ¬åħ¬åı¸":3354,"æıĲä¾Ľåħįè´¹":3355,"çİ°åľº":3356,"Ġment":3357,"è£ħç½®":3358,"ä¼ĺåĬ¿":3359,"çīĪæĿĥ":3360,"çŃĸçķ¥":3361,"çĽĳæİ§":3362,"ä»įçĦ¶":3363,"è¸ª":3364,"æĶ»åĩ»":3365,"çļĦç©º":3366,"SM":3367,"ronic":3368,"å«":3369,"çļĦé«ĺ":3370,"çļĦæķ°æį®":3371,"æľ«":3372,"æĪĳä¸į":3373,"åĩ¯":3374,"èµŀ":3375,"æľĢå¤§çļĦ":3376,"ç¨ĭåº¦":3377,"åĮĸåŃ¦":3378,"èĬ¬":3379,"æ»¤":3380,"ç»ĦåĲĪ":3381,"èįĲ":3382,"æĺŁæľŁ":3383,"ç»ĪæŃ¢":3384,"own":3385,"æįŁå®³":3386,"æĺ¯ä¸Ģç§į":3387,"08":3388,"çļĦæĿĥåĪ©":3389,"è¿«":3390,"éĩĮéĿ¢":3391,"çĿĽ":3392,"ç»ıèĲ¥":3393,"éļĨ":3394,"ress":3395,"èĥ¡":3396,"çĪ±çļĦ":3397,"æİ¨èįĲ":3398,"çģµæ´»":3399,"ational":3400,"ç«ŀäºī":3401,"çļĦç¥ŀ":3402,"è¦Ĩ":3403,"åı¥":3404,"äººæĿĥ":3405,"éĹª":3406,"èµģ":3407,"æıĲåĩº":3408,"æ²ĥ":3409,"ĠAr":3410,"åŃĲçļĦ":3411,"ĠTr":3412,"2010":3413,"æ¯ıå¤©":3414,"åħ±åĴĮ":3415,"å¨ľ":3416,"ç§Łèµģ":3417,"èĤ¡ä»½æľīéĻĲåħ¬åı¸":3418,"jp":3419,"Ġail":3420,"Ġier":3421,"å®ŀæĹ¶":3422,"æĶ¹åĸĦ":3423,"è¯Ħä¼°":3424,"åģľæŃ¢":3425,"åĪ¶éĢłåķĨ":3426,"å®ĹæķĻ":3427,"çĴĥ":3428,"Ġ>":3429,"Ġä¸Ń":3430,"Ġç³»åĪĹ":3431,"éĩĮçļĦ":3432,"ĠSp":3433,"åĲİçļĦ":3434,"çī©è´¨":3435,"èµĦäº§":3436,"æĶ¶åĪ°":3437,"åĨįæ¬¡":3438,"ooki":3439,"çļĦçĻ¾":3440,"AP":3441,"Se":3442,"å´":3443,"çĶŁæĪĲ":3444,"æ±¡":3445,"åĩºçīĪ":3446,"æģĲ":3447,"åŁºéĩĳ":3448,"æŁı":3449,"èĮ¨":3450,"è¿Ļæł·çļĦ":3451,"è´§å¸ģ":3452,"çĶ·äºº":3453,"å±ıå¹ķ":3454,"åģľè½¦åľº":3455,"çİ»çĴĥ":3456,"sh":3457,"Ġach":3458,"åľ¨æŃ¤":3459,"å¤§å®¶":3460,"ĠMar":3461,"ç¼¸":3462,"ĠNE":3463,"ĠUS":3464,"åŁŁåĲį":3465,"èģĶç³»æĪĳä»¬":3466,"èĩªåĬ¨åĮĸ":3467,"åĲ¸å¼ķ":3468,"49":3469,"int":3470,"åľ¨ä¸Ģä¸ª":3471,"æĪĳå°±":3472,"å¿Ļ":3473,"å¤§åŀĭ":3474,"è¡ĮæĶ¿":3475,"ĠAl":3476,"éģį":3477,"éģŃ":3478,"éĽ¨":3479,"æĪĺçķ¥":3480,"olog":3481,"ntern":3482,"echnolog":3483,"46":3484,"IS":3485,"Ġaz":3486,"ä¸Ńå¤®":3487,"èĢĹ":3488,"èµĮ":3489,"æĹ¶ä»£":3490,"ç¾İé£Ł":3491,"ç±»ä¼¼":3492,"éĻĲäºİ":3493,"ä¼łè¾ĵ":3494,"ç¿°":3495,"Templ":3496,"æĪĳä»¬å°Ĩ":3497,"å¯¹è±¡":3498,"ĠAP":3499,"ä½ĵèĤ²":3500,"ĠRE":3501,"åİ»äºĨ":3502,"198":3503,"ä¿®å¤į":3504,"çļĦäºĭæĥħ":3505,"èģĶåĲĪåĽ½":3506,"èªī":3507,"é¢ľèī²":3508,"åĶ¯ä¸Ģ":3509,"ld":3510,"æĺł":3511,"è¡¡":3512,"æķ¬":3513,"å¤§ä¼ļ":3514,"ĠCam":3515,"åħ³éĹŃ":3516,"èģĶçĽŁ":3517,"åįģåĪĨ":3518,"èĩ´åĬĽ":3519,"çľ¼çĿĽ":3520,"ide":3521,"æ½®":3522,"æ°¸è¿ľ":3523,"Ġ!":3524,"çĶ°":3525,"æľīçº¿":3526,"ä»¥ä¾¿":3527,"æīĢåľ¨":3528,"åĪĨç±»":3529,"æĦıä¹ī":3530,"éĴ®":3531,"ç¥Ń":3532,"å¤įåĪ¶":3533,"å¹¿å·ŀ":3534,"è¾ĵåĩº":3535,"æ´Ĺè¡£":3536,"åħħæ»¡":3537,"Mar":3538,"Ġte":3539,"æĺ¯ä»Ģä¹Ī":3540,"åĩŃ":3541,"å¦»":3542,"Ġue":3543,"çĤ¼":3544,"æľįåĬ¡çļĦ":3545,"åįķä½į":3546,"å¡«":3547,"æĶ¾æĿ¾":3548,"å¥³åŃ©":3549,"åıĮäºº":3550,"300":3551,"é¹":3552,"Ġix":3553,"æĭīæĸ¯":3554,"Ġland":3555,"æŁ¥æī¾":3556,"èĥŀ":3557,"ç³»ç»ŁçļĦ":3558,"è¿ĶåĽŀ":3559,"Bid":3560,"gBid":3561,"¹ģ":3562,"ç»¼":3563,"ä¸ĢçĤ¹":3564,"Ġore":3565,"å·§":3566,"äººå£«":3567,"å°±åı¯ä»¥":3568,"æĽ´é«ĺ":3569,"éĽĩ":3570,"Ġans":3571,"å¹³æĿ¿":3572,"æ¯Ķå¦Ĥ":3573,"çģŃ":3574,"æ¼ı":3575,"éļıæĹ¶":3576,"ç¬¬ä¸Ģæ¬¡":3577,"åį«çĶŁ":3578,"ä¼¼ä¹İ":3579,"çĳŀå£«":3580,"æŃ¥è¡Įè·¯ç¨ĭ":3581,"AvgBid":3582,"ive":3583,"500":3584,"ä¸Ģå®¶":3585,"æĹģ":3586,"æĤī":3587,"æľ¬åľ°":3588,"çĶµæ±ł":3589,"ä¿¡åı·":3590,"åħ¨åĽ½":3591,"åĬłåĿ¡":3592,"Ġ)ãĢĤ":3593,"æĦıè§ģ":3594,"åĢį":3595,"ĠRes":3596,"çĽ¸å½ĵ":3597,"å¹³æĸ¹":3598,"æĦŁåĪ°":3599,"åħĪè¿Ľ":3600,"æĮīéĴ®":3601,"ç§°ä¸º":3602,"Ġight":3603,"åº¦åģĩæĿĳ":3604,"of":3605,"Ġite":3606,"æľīäºº":3607,"æĪĳä¹Ł":3608,"Ġup":3609,"åıĳè¡¨":3610,"æ¯ķ":3611,"æľ¬åįıè®®":3612,"éĤ»":3613,"é«ĺéĢŁ":3614,"åº¦çļĦ":3615,"åĽłç´ł":3616,"ome":3617,"Ġby":3618,"åıªè¦ģ":3619,"è§Ħæ¨¡":3620,"è®¢åįķ":3621,"éº»":3622,"lectronic":3623,"æĭĴç»Ŀ":3624,"]ãĢĤ":3625,"Ġaw":3626,"æĿ¯":3627,"äºİæĺ¯":3628,"çĦĬ":3629,"å®ĥæĺ¯":3630,"2008":3631,"èĳ£":3632,"Ġack":3633,"é¾Ħ":3634,"åĪĨéĴŁè½¦ç¨ĭ":3635,"æŃ»äº¡":3636,"æ¿Ģåħī":3637,"edia":3638,"åŁĥåıĬ":3639,"èĨľ":3640,"ngl":3641,"èıľåįķ":3642,"å³°":3643,"èĩ´åĬĽäºİ":3644,"44":3645,"ED":3646,"Ġ]":3647,"çļĦä½ıå®¿":3648,"æĪĳæĺ¯":3649,"åİļ":3650,"æĮ¥":3651,"2000":3652,"åĲĪåĲĮ":3653,"æĦıè¯Ĩ":3654,"ä½Ĩä¸į":3655,"æ¶Ĥ":3656,"ĠOR":3657,"ç»Ħä»¶":3658,"èĩ³å°ĳ":3659,"åĩłä¸ª":3660,"åĿĲåľ¨":3661,"éŃĶ":3662,"åħ±åĴĮåĽ½":3663,"mm":3664,"åĹ":3665,"ä¸¢":3666,"çļĦä½¿çĶ¨":3667,"çļĦå®¢æĪ¿":3668,"çĶ¨åĵģ":3669,"åĩ¡":3670,"æĸ°åĬłåĿ¡":3671,"åĲĮæł·":3672,"æĸĩæľ¬":3673,"ä½ĵç³»":3674,"éĥ¨ä»¶":3675,"åĬĽéĩı":3676,"å»ºè®¾":3677,"äº¤æµģ":3678,"åĽŀçŃĶ":3679,"æĲº":3680,"è¯ĨåĪ«":3681,"èĢģå¸Ī":3682,"ish":3683,"æļĤ":3684,"èĪ¹ç¥¨":3685,"æĹłçº¿ç½ĳç»ľ":3686,"é¼ĵ":3687,"ä¿ĥè¿Ľ":3688,"nglish":3689,"IT":3690,"ĠSS":3691,"Ġind":3692,"æİ¥åı£":3693,"Ġco":3694,"Ġare":3695,"çĽ®çļĦåľ°":3696,"Ġph":3697,"æĺİçĻ½":3698,"éªĳ":3699,"è£ħé¥°":3700,"Ġiss":3701,"Ġett":3702,"æ¸ħæ´ģ":3703,"æĪĺäºī":3704,"èħĬ":3705,"ä¼ĳéĹ²":3706,"æł¸å¿ĥ":3707,"æ·ĭæµ´":3708,"Am":3709,"çļĦæľĢä½³":3710,"åħ¹":3711,"å®ĩ":3712,"è¿ħ":3713,"æľīæĿĥ":3714,"æĢª":3715,"ä½łè¦ģ":3716,"æ¯ģ":3717,"ç¾Ĭ":3718,"ç»Łè®¡":3719,"å±ķè§Ī":3720,"åıªéľĢ":3721,"åİŁåĪĻ":3722,"ç¢į":3723,"jpg":3724,"Pl":3725,"Ste":3726,"ik":3727,"åĪ¸":3728,"å¯¿":3729,"çº¤":3730,"Ġsc":3731,"ç³ĸ":3732,"ç»ıå¸¸":3733,"çī©æµģ":3734,"æ»ļ":3735,"åħ·ä½ĵ":3736,"åĸĿ":3737,"å®¤åĨħ":3738,"éĺ¿æĭī":3739,"å¾ĭå¸Ī":3740,"éŁ©åĽ½":3741,"çļĦçłĶ":3742,"HTML":3743,"åľ¨ä¸Ģèµ·":3744,"æĪĳè¦ģ":3745,"ç§Ĵ":3746,"å·¥åİĤ":3747,"æ¬²":3748,"åħ¨éĿ¢":3749,"æĸ¯ç§ĳ":3750,"çľĭçľĭ":3751,"çļĦçĭ":3752,"å½ĵæĹ¶":3753,"æ¸¸å®¢":3754,"å®¤å¤ĸ":3755,"éĢĤçĶ¨":3756,"æ¢¯":3757,"æļĸ":3758,"æ¥ļ":3759,"éļĲç§ģæĶ¿çŃĸ":3760,"Fl":3761,"pe":3762,"ĠæıĲä¾Ľ":3763,"Ġale":3764,"åľ¨è¿Ļä¸ª":3765,"ä¿±ä¹Ĳ":3766,"æłı":3767,"æĹ¶å°ļ":3768,"å¤ļçļĦ":3769,"æ²¿":3770,"æľºçļĦ":3771,"åħ¶å®ŀ":3772,"ĠCon":3773,"Ġry":3774,"å¿ĥéĩĮ":3775,"éĥ½æľī":3776,"æĹłéľĢ":3777,"äº§åĵģçļĦ":3778,"æŃ£å¼ı":3779,"Ġich":3780,"æĳĩ":3781,"åľ£ç»ı":3782,"ä»ĺæ¬¾":3783,"kmåħ¬å¯ĵ":3784,"å°¤åħ¶":3785,"Cl":3786,"Le":3787,"Web":3788,"ru":3789,"ä¸Ģå¼ł":3790,"Ġoy":3791,"æİĮ":3792,"éĢļè®¯":3793,"çİ°å®ŀ":3794,"ç¬¬ä¸Ģä¸ª":3795,"å¤ĸéĥ¨":3796,"çĽ®å½ķ":3797,"èģĶéĤ¦":3798,"åıĤæķ°":3799,"2009":3800,"çĵ¶":3801,"emicon":3802,"æ³°åĽ½":3803,"æķħäºĭ":3804,"è¿Ŀåıį":3805,"ä¿±ä¹Ĳéĥ¨":3806,"çļĦåĨħå®¹":3807,"æĪ´":3808,"åĪº":3809,"åľ¨ä»ĸ":3810,"æĪĳè¯´":3811,"æķŀ":3812,"å®ļåĪ¶":3813,"åĲįåŃĹ":3814,"æŃ£å¸¸":3815,"å¸ĥæĭī":3816,"åıªèĥ½":3817,"æŁĶ":3818,"ä¼ĺç§Ģ":3819,"æ®¿":3820,"æ®ĭ":3821,"é¢ĨåħĪ":3822,"åį³åı¯":3823,"å¸ĮèħĬ":3824,"éĺ³åı°":3825,"åĵªäºĽ":3826,"ä¸¥éĩį":3827,"And":3828,"ä¿¡çĶ¨åį¡":3829,"èģĬå¤©":3830,"Â°":3831,"Â»":3832,"ç¹ģ":3833,"ä»Ķ":3834,"åħĦ":3835,"è´¥":3836,"æĭĸ":3837,"éĻ¶":3838,"æ³µ":3839,"å¤ļå°ĳ":3840,"çī¹çĤ¹":3841,"Ġanc":3842,"è¡¨çİ°":3843,"æİ¥è§¦":3844,"èµĦè®¯":3845,"Ġice":3846,"åıĸæ¶Ī":3847,"æĶ¹è¿Ľ":3848,"æĳĨ":3849,"Ġade":3850,"å¼ķèµ·":3851,"åĵªéĩĮ":3852,"æ¤ħ":3853,"çĪ¶äº²":3854,"47":3855,"éŀ":3856,"çĶ¨é¤Ĳ":3857,"ä»¥ä¸º":3858,"åľ°çļĦ":3859,"çº¹":3860,"ä½łä¼ļ":3861,"èµ¢":3862,"åĬ¨åĬĽ":3863,"æĸĩæ¡£":3864,"åĻ¨çļĦ":3865,"å¤©æ°Ķ":3866,"è¿ĺåı¯ä»¥":3867,"è£¤":3868,"æ¯ĶèµĽ":3869,"ä¼ĺè´¨":3870,"åĳ½ä»¤":3871,"ç¢³":3872,"æ¶īåıĬ":3873,"Via":3874,"èĶ":3875,"åĲ¹":3876,"å°¾":3877,"å¾ª":3878,"ä»¥åĲİ":3879,"åİĺ":3880,"æľĢä½İ":3881,"Ġran":3882,"ä¹ĭå¤ĸ":3883,"å®īæİĴ":3884,"æłĩå¿Ĺ":3885,"ç¼ĺ":3886,"æ¯ıæĻļ":3887,"è§ĦåĪĴ":3888,"æľªç»ı":3889,"ç»Ĩèĥŀ":3890,"æ¦Ĥå¿µ":3891,"æ··åĲĪ":3892,"çļĦçĪ±":3893,"Template":3894,"è¿¹":3895,"åĴĮè§Ĩé¢ĳ":3896,"å¦¹":3897,"æ²Ł":3898,"çĶµåĬ¨":3899,"erry":3900,"åħ³èģĶ":3901,"ĠEC":3902,"ĠPark":3903,"æĥ³æ³ķ":3904,"è¯¥çŃī":3905,"ĠLa":3906,"Ġica":3907,"ç²Ĵ":3908,"è®ºåĿĽ":3909,"å¥³æĢ§":3910,"èĭ±æĸĩ":3911,"åıĤè§Ĥ":3912,"èħ¿":3913,"Ġood":3914,"ç§¯æŀģ":3915,"ç¾¤å²Ľ":3916,"Ġock":3917,"éģµå®Ī":3918,"å½¼å¾Ĺ":3919,"å°Ŀè¯ķ":3920,"66":3921,"Pr":3922,"ul":3923,"Ġæķ°æį®è¡¨":3924,"çļĦå·¥ä½ľæĹ¶éĹ´":3925,"å®ħ":3926,"æĹ¦":3927,"æľīçĤ¹":3928,"å¿į":3929,"æįķ":3930,"ĠAir":3931,"æģĴ":3932,"äº§æĿĥ":3933,"è¶ĭ":3934,"å¹³éĿ¢":3935,"åįķåĩ»":3936,"åĽ½éĻħæľºåľº":3937,"åį«æĺŁ":3938,"èģĮä¸ļ":3939,"å®ĺæĸ¹":3940,"è½´æī¿":3941,"æ¤įçī©":3942,"è¦ĨçĽĸ":3943,"ENT":3944,"if":3945,"ä»°":3946,"åı¶":3947,"åľ³":3948,"åºŁ":3949,"ä¸Ĭè¿°":3950,"å¹¶æ²¡æľī":3951,"ĠCity":3952,"åĲĪçĲĨ":3953,"ĠIM":3954,"è¡¨æĺİ":3955,"ĠET":3956,"ĠMan":3957,"æµ·å²¸":3958,"æ¨¡æĭŁ":3959,"æ·±åľ³":3960,"åı¦ä¸Ģä¸ª":3961,"ä¸¾åĬŀ":3962,"æİ¢ç´¢":3963,"æĬµè¾¾":3964,"åĬŀåħ¬å®¤":3965,"èĬ¬åħ°":3966,"AR":3967,"pt":3968,"per":3969,"çļĦæīĭ":3970,"æĺĤ":3971,"è¯ŀ":3972,"è½¨":3973,"æĬĵ":3974,"èµĲ":3975,"æĪĳä»¬ä¼ļ":3976,"ĠAn":3977,"å®¶åħ·":3978,"è·¨":3979,"è¿Ľåı£":3980,"ĠPS":3981,"æŃ¤ç±»":3982,"ç¥Ŀ":3983,"æ¯ıå¹´":3984,"æ°ĶåĢĻ":3985,"çº¦ç¿°":3986,"æĮĩå®ļ":3987,"éªĮè¯ģ":3988,"Ġoun":3989,"ä»ħæľī":3990,"åĳ¨åĽ´":3991,"å¸®åĬ©æĤ¨":3992,"è¯¦ç»Ĩä¿¡æģ¯":3993,"ç»¼åĲĪ":3994,"åľĪ":3995,"å¹ħ":3996,"åĨł":3997,"æı¡":3998,"åĪĨéħį":3999,"çĲĨçĶ±":4000,"ç»ıçĲĨ":4001,"å¼Ģå±ķ":4002,"çī¹èī²":4003,"å¿ĥçļĦ":4004,"çļĦç¡":4005,"å¤©çĦ¶":4006,"Ġern":4007,"å°ıçļĦ":4008,"Ġha":4009,"æįŁåĿı":4010,"çªģçĦ¶":4011,"çļĦçģµ":4012,"çļĦç²¾":4013,"88":4014,"CO":4015,"æľīä»Ģä¹Ī":4016,"åľ°çĲĥ":4017,"åĬ¨æĢģ":4018,"æľįåĬ¡åĴĮ":4019,"ç«ĻçĤ¹":4020,"äº¤ä»ĺ":4021,"ç»ĦæĪĲ":4022,"æĶ¾åľ¨":4023,"2007":4024,"ç¢İ":4025,"Inc":4026,"éľ²åı°":4027,"ductor":4028,"emiconductor":4029,":ãĢĮ":4030,"os":4031,"åºĦ":4032,"åºĨ":4033,"åį·":4034,"æīİ":4035,"ä»ĸæĺ¯":4036,"ä½ľèĢħ":4037,"Ġson":4038,"ä½¿å¾Ĺ":4039,"åĪ©çĽĬ":4040,"åħ¨ä¹¦":4041,"åĢº":4042,"æĲŃ":4043,"èĬĤçľģ":4044,"çłĶåıĳ":4045,"è¿Ļæĺ¯ä¸Ģä¸ª":4046,"æĢİæł·":4047,"çĻ»è®°":4048,"ä¸¾è¡Į":4049,"èĮĥåĽ´åĨħ":4050,"ä¸ºæĤ¨æıĲä¾Ľ":4051,"åħ¼å®¹":4052,"æŁıæŀĹ":4053,"AM":4054,"ux":4055,"âĤ":4056,"Ġåı¯":4057,"çļĦå¿ĥ":4058,"æĪª":4059,"ä»¥æĿ¥":4060,"åľ°äº§":4061,"æıĲç¤º":4062,"Ġsp":4063,"çĶµæľº":4064,"ç¬¬åĽĽ":4065,"çļĦç¼":4066,"è¡¨è¾¾":4067,"æĪ¿åŃĲ":4068,"å£®":4069,"äº¤åıĭ":4070,"Ġatt":4071,"æ¯ıä¸Ģä¸ª":4072,"ä¸ĵéĹ¨":4073,"æĴ¤":4074,"æ²Ļåıĳ":4075,"å¡ĳæĸĻ":4076,"é©¾é©¶":4077,"Com":4078,"ID":4079,"IN":4080,"SS":4081,"tp":4082,"äº¦":4083,"ç»©":4084,"è¿Ļå°±æĺ¯":4085,"è´¡":4086,"æµ¦":4087,"æĿ¥è¶Ĭ":4088,"è¿ĩæĿ¥":4089,"åĩºåıĳ":4090,"å°Ķå¤«":4091,"Ġerm":4092,"åįķåħĥ":4093,"èĦī":4094,"Ġort":4095,"å½¢æĪĲ":4096,"è¶ĬæĿ¥è¶Ĭ":4097,"æĬĺæī£":4098,"é½Ĳåħ¨":4099,"çļĦçĻ¾ç§ĳ":4100,")(":4101,"é¬":4102,"åľ¨æĪĳ":4103,"ä¸Ģä½į":4104,"ä¸Ģå¤©":4105,"ä¸Ģèĩ´":4106,"éĢĲ":4107,"ä¸ŃéĹ´":4108,"åĮ¹":4109,"é¢Ĺ":4110,"å¦Ĥä»Ĭ":4111,"ĠAv":4112,"å®¶çļĦ":4113,"åľºæīĢ":4114,"äºĭåĬ¡":4115,"è¢ĭ":4116,"èĤ¤":4117,"æĺİç¡®":4118,"çĪĨ":4119,"Ġzh":4120,"æµ´ç¼¸":4121,"é£Łçī©":4122,"åĪĨéĴŁçļĦ":4123,"åįĩçº§":4124,"èĩªçĶ±çļĦçĻ¾ç§ĳ":4125,"èµĶåģ¿":4126,"èĩªçĶ±çļĦçĻ¾ç§ĳåħ¨ä¹¦":4127,"La":4128,"LED":4129,"MB":4130,"gle":4131,"rand":4132,"æĤ¨å°Ĩ":4133,"åħ¬å¼Ģ":4134,"è·µ":4135,"éĿ¢ç§¯":4136,"çİ°æľī":4137,"ĠDr":4138,"Ġty":4139,"æķ°æį®åºĵ":4140,"Ġone":4141,"åħ¶ä»ĸå·¥ä½ľ":4142,"å¤Ħäºİ":4143,"æķĻåłĤ":4144,"èĥ¸":4145,"Ġics":4146,"ç»Ļä½ł":4147,"ĠUR":4148,"é¦ĸåħĪ":4149,"250":4150,"ile":4151,"Ġåħ¬åı¸":4152,"Ġè½¯ä»¶":4153,"Ġint":4154,"æĪĳåľ¨":4155,"äººåı£":4156,"éħĴåºĹåľ¨":4157,"æ³ķè§Ħ":4158,"çĽ¸åºĶ":4159,"éĵº":4160,"éª¤":4161,"æĹħå®¢":4162,"éĿŀæ´²":4163,"è§Ĥçľĭ":4164,"çıł":4165,"åıįåºĶ":4166,"ç¤¾äº¤":4167,"æī¿è®¤":4168,"çĬ¶åĨµ":4169,"èŀº":4170,"http":4171,"ä¸ĭåĪĹåĲĦé¡¹":4172,"èĳ£äºĭ":4173,"éĺ¿æĭīä¼¯":4174,"Mac":4175,"Or":4176,"ach":4177,"ml":4178,"site":4179,"çħ":4180,"è¯Ĭ":4181,"å¯Ħ":4182,"å¥ī":4183,"åľ°éĵģ":4184,"å¦Ļ":4185,"æıĲåīį":4186,"å¹´é¾Ħ":4187,"çĻĮ":4188,"ç¼Ĩ":4189,"Ġash":4190,"è¯ķéªĮ":4191,"://":4192,"æİĴåĲį":4193,"äºīè®®":4194,"åĺī":4195,"æİĪäºĪ":4196,"æĺŁçº§éħĴåºĹ":4197,"åĨ°ç®±":4198,"ä¹ĺå®¢":4199,"59":4200,"Ġ=":4201,"çļĦä¸»è¦ģ":4202,"æľīè¶£":4203,"å¹»":4204,"å¼±":4205,"å¼Ħ":4206,"æķĮ":4207,"ä½łä¸į":4208,"éĻ·":4209,"ä¸Ĭç½ĳ":4210,"åĪ°çļĦ":4211,"æĿ¥æºĲ":4212,"Ġuk":4213,"è¿ĩæ»¤":4214,"ä¸İä¸ĭåĪĹåĲĦé¡¹":4215,"ĠIL":4216,"ä¹Łä¼ļ":4217,"star":4218,"ĠES":4219,"éģĵè·¯":4220,"æ¸¸è§Ī":4221,"åĬ©äºİ":4222,"åĽŀåĪ°":4223,"åĬŁçİĩ":4224,"åģļåĩº":4225,"URY":4226,"åİĭç¼©":4227,"åħĥç´ł":4228,"èµ°äºĨ":4229,"isc":4230,"åĮ»çĶŁ":4231,"çĽ¸åħ³çļĦåħ¶ä»ĸå·¥ä½ľ":4232,"è¿ħéĢŁ":4233,"ENTURY":4234,"ä¸İä¸ĭåĪĹåĲĦé¡¹çĽ¸åħ³çļĦåħ¶ä»ĸå·¥ä½ľ":4235,"09":4236,"400":4237,"AN":4238,"Ex":4239,"çĺ":4240,"ä¹¡":4241,"æĺ¯çĶ±":4242,"è¿Ļå®¶":4243,"å±ģ":4244,"å¯¹è¯Ŀ":4245,"éĩĮæĸ¯":4246,"Ġru":4247,"è¯´è¯Ŀ":4248,"Ġark":4249,"ç¼Ŀ":4250,"ĠLe":4251,"èĦĤ":4252,"ç±»åĪ«":4253,"ç½ĳç«ĻçļĦ":4254,"æĶ¶åħ¥":4255,"çĭĤ":4256,"ĠUn":4257,"Ġver":4258,"åıĤèĢĥ":4259,"ä¹īåĬ¡":4260,"çŃ¾è¯ģ":4261,"çħ§çīĩåĴĮè§Ĩé¢ĳ":4262,"é½¿":4263,"èĸĦ":4264,"ĠSuite":4265,"çĭ¬çī¹çļĦ":4266,"éŀĭ":4267,"âĤ¬":4268,"Ġå·²ç»ı":4269,"Ġä¸ªäººèµĦæĸĻ":4270,"Ġey":4271,"ä»ĸåľ¨":4272,"æ³¡":4273,"åĲİæĿ¥":4274,"çļĦçĬ":4275,"è½¦è¾Ĩ":4276,"Ġery":4277,"æĺİæĺ¾":4278,"Ġ12":4279,"å¾Īå¥½":4280,"éķ¿çļĦ":4281,"ä½ıåľ¨":4282,"oogle":4283,"Ġive":4284,"å®½æķŀ":4285,"é²ľèĬ±":4286,"æ°§åĮĸ":4287,"æ¬£èµı":4288,"é¬¼":4289,"54":4290,"78":4291,"CD":4292,"wik":4293,"ç»ķ":4294,"Ġeg":4295,"æĪĳä»¬åı¯ä»¥":4296,"ä½ľåĩº":4297,"å°±åĥı":4298,"åģ¶":4299,"å¼Ģåħ³":4300,"é«ĺåº¦":4301,"åĬłæĹ©é¤Ĳ":4302,"åĽ¾å½¢":4303,"ç©Ĩ":4304,"Ġath":4305,"å¸¸è§ģ":4306,"Ġge":4307,"è¿Ľè¡ĮäºĨ":4308,"åįģåŃĹ":4309,"æŃ¥éª¤":4310,"åı·çłģ":4311,"æĢ»ç»Ł":4312,"agram":4313,"303":4314,"çºªå¿µ":4315,"æĦ¿æĦı":4316,"éŃĤ":4317,"çĬ¹å¤ª":4318,"!âĢĿ":4319,"04":4320,"Google":4321,"Lin":4322,"ire":4323,"ran":4324,"çļĦæĬĢæľ¯":4325,"Ġau":4326,"æī¬":4327,"å¤§çº¦":4328,"æĪĸæĺ¯":4329,"æĮ¯":4330,"æĮĤ":4331,"ĠAD":4332,"ä¸İæĪĳä»¬":4333,"ĠCO":4334,"ç»ıåİĨ":4335,"ong":4336,"éľį":4337,"ĠEm":4338,"âĢĿãĢĤ":4339,"ç´¯":4340,"æĬĢèĥ½":4341,"amp":4342,"ess":4343,"åįģäºĮ":4344,"å¯ĨéĴ¥":4345,"æĢ»æĺ¯":4346,"åįļå®¢":4347,"æİ¨åĬ¨":4348,"çĽĳæµĭ":4349,"å¯»æ±Ĥ":4350,"èī¯å¥½çļĦ":4351,"ç§ģäººæµ´å®¤":4352,"ä½Ľç½Ĺ":4353,"ostel":4354,"æī«æıı":4355,"çĸ¾çĹħ":4356,"ä½Ĩä¸įéĻĲäºİ":4357,"æĺ¥":4358,"åĲ»":4359,"è¯¸":4360,"ä¸ĢæĿ¡":4361,"æĹĹ":4362,"åĩ½":4363,"ç½ļ":4364,"å½»":4365,"æ°Ľ":4366,"æĦī":4367,"æľĢæĸ°çļĦ":4368,"çĲĨè®º":4369,"å°Ĩåľ¨":4370,"çī¹æĢ§":4371,"è¯´éģĵ":4372,"Ġana":4373,"çļĦçħ§":4374,"å¼ıéħĴåºĹ":4375,"éķ¿åº¦":4376,"æ¯Ķäºļ":4377,"å§ĭç»Ī":4378,"æł¹æľ¬":4379,"çļĦä¸ĢåĪĩ":4380,"ç¦ıéŁ³":4381,"è¿·ä½ł":4382,"åį±éĻ©":4383,"?\"":4384,"Sk":4385,"è¹":4386,"Ġire":4387,"æĿĨ":4388,"ä¸įåĨį":4389,"è´·":4390,"æĬ«":4391,"æľĢå¤ļ":4392,"å°±åľ¨":4393,"è¯´çļĦ":4394,"èĢĮè¨Ģ":4395,"éĤ£æł·":4396,"å®ŀè·µ":4397,"æİ¥æĶ¶":4398,"çī©åĵģ":4399,"åĢ¾":4400,"æĥ³åĪ°":4401,"æµģéĩı":4402,"è®©æĤ¨":4403,"æŁľ":4404,"å¤įæ´»":4405,"æĮĩå¯¼":4406,"å©´":4407,"ç¦ģæŃ¢":4408,"Instagram":4409,"echnology":4410,"è¶ĭåĬ¿":4411,"69":4412,"77":4413,"çļĦè®¾è®¡":4414,"çļĦå®¢äºº":4415,"å°ĸ":4416,"éĢĬ":4417,"åı¯æĮģç»Ń":4418,"åĽ¾ä¹¦":4419,"çĦ¦":4420,"Ġitt":4421,"é¢Ħæµĭ":4422,"å·´å¡ŀ":4423,"ç±³åħ°":4424,"è§Ĥå¯Ł":4425,"åĽ½å®¶çļĦ":4426,"åºĬä¸Ĭ":4427,"Ġung":4428,"é»Ħéĩĳ":4429,"æĳĦåĥı":4430,"çļĦçĪ¶":4431,"èį·åħ°":4432,"éĺ¶æ®µ":4433,"åĴĮæľįåĬ¡":4434,"æĺ¯ä¸ª":4435,"ä¼ı":4436,"æĿľ":4437,"æķ¢":4438,"æ³½":4439,"åĩºåİ»":4440,"åĨħåŃĺ":4441,"ä¹Łæľī":4442,"éĥİ":4443,"çŃīçŃī":4444,"Ġfr":4445,"å·´è¥¿":4446,"æİ§åĪ¶åĻ¨":4447,"è¯·æ±ĤçļĦURLhttp":4448,"æī¿è¯º":4449,"aceb":4450,"è¡£æľį":4451,"æį·åħĭ":4452,"ç»ĵæĿŁleft":4453,"é©±åĬ¨åĻ¨":4454,"nternational":4455,"æĩ":4456,"æħ§":4457,"ĠâĢĵ":4458,"çļĦåīį":4459,"çļĦå½±åĵį":4460,"åħµ":4461,"Ġax":4462,"Ġost":4463,"çĶ¨æĿ¥":4464,"åĩĿ":4465,"ç½ķ":4466,"åĳĪ":4467,"éĽĦ":4468,"èĢĮä¸įæĺ¯":4469,"éĥ½ä¸į":4470,"éĩįéĩı":4471,"å¤©ä¸»":4472,"éĶĪ":4473,"å¤ĸåĽ½":4474,"å°ıåŀĭ":4475,"ç¥·":4476,"all":4477,"æĶ¶èĹı":4478,"ä¸ĸçķĮä¸Ĭ":4479,"ä¸ĸçķĮåĲĦ":4480,"åĪĩåī²":4481,"ç§»æ°ĳ":4482,"åĸľçĪ±":4483,"èĪªçıŃ":4484,"éĺ²æŃ¢":4485,"çĨ¨":4486,"éŁ¦":4487,"ä¸°å¯ĮçļĦ":4488,"å®ŀéªĮå®¤":4489,"æ²ŁéĢļ":4490,")ãĢģ":4491,"58":4492,"PHP":4493,"èļ":4494,"çļĦéĩįè¦ģ":4495,"è¯Ĺ":4496,"éĢĥ":4497,"ä¸ªæĢ§":4498,"å¤§éĥ¨åĪĨ":4499,"åĳĢ":4500,"Ġual":4501,"å¹´åīį":4502,"Ġss":4503,"ĠCo":4504,"å°Ĩåħ¶":4505,"æ³ķéĻ¢":4506,"éĢļéģĵ":4507,"é«ĺæķĪ":4508,"åĬłå¼º":4509,"çļĦçĹ":4510,"ĠPr":4511,"éª¨":4512,"ä½ıäºĨ":4513,"ä½ıå®ħ":4514,"å¸¦æľī":4515,"å¿«ä¹Ĳ":4516,"åĶ±":4517,"æ¸ħåįķ":4518,"åıįå¯¹":4519,"åįıåĬ©":4520,"è½®æ¸¡":4521,"ace":4522,"çĹħæ¯Ĵ":4523,"ade":4524,"éľ²èĲ¥":4525,"æĸ¹éĿ¢çļĦ":4526,"Ġult":4527,"é¡¶çº§":4528,"è´Ŀå°Ķ":4529,"Adv":4530,"ç»¿èī²":4531,"Black":4532,"ĠBeach":4533,"çļĦçĭ¬":4534,"è´¡çĮ®":4535,"01":4536,"57":4537,"English":4538,"çļĦçĲĨæĥ³":4539,"ä»¿":4540,"åı¬":4541,"ĠaS":4542,"æĪĳçŁ¥éģĵ":4543,"ä¸įç®¡":4544,"æ³¥":4545,"å¤§å°ı":4546,"è¾Ľ":4547,"åıĳåĩº":4548,"åīª":4549,"éĤĢ":4550,"Ġri":4551,"èĢĮæĺ¯":4552,"æ·¡":4553,"å¾·éĩĮ":4554,"ree":4555,"ĠFl":4556,"Ġord":4557,"Ġorn":4558,"Ġamp":4559,"åĬŀæ³ķ":4560,"è¿ľç¨ĭ":4561,"äºĨè§£æĽ´å¤ļ":4562,"åľ°åĮºçļĦ":4563,"èĩªè¡Įè½¦":4564,"é¥ŃåºĹ":4565,"æĤ£èĢħ":4566,"çļĦçłĶç©¶":4567,"Be":4568,"New":4569,"iver":4570,"un":4571,"ãĢĤ[":4572,"æĪĪ":4573,"åľ¨ä¸Ģ":4574,"æľīåĬ©äºİ":4575,"åŃĻ":4576,"æĢĴ":4577,"ä¸ĬäºĨ":4578,"ä¸ĭä¸Ģ":4579,"ĠCD":4580,"åŃ¦å®¶":4581,"è£Ĥ":4582,"èµĦéĩĳ":4583,"Ġpro":4584,"Ġyn":4585,"æŁ¥è¯¢":4586,"é©¬ä¸Ĭ":4587,"éĽĨä¸Ń":4588,"è®©æĪĳä»¬":4589,"å°¼æĸ¯":4590,"å¿«çļĦ":4591,"æ¼Ĥ":4592,"è´¢äº§":4593,"æķħéļľ":4594,"éĽ¶åĶ®":4595,"åĬ³åĬ¨":4596,"æĽ¿ä»£":4597,"ĠComp":4598,"Instagramçħ§çīĩåĴĮè§Ĩé¢ĳ":4599,"42":4600,"Ag":4601,"IC":4602,"Tex":4603,"po":4604,"ton":4605,"èĿ":4606,"çļĦä»·æł¼":4607,"çļĦçĶŁæ´»":4608,"Ġium":4609,"Ġep":4610,"è¿Ļæ¬¡":4611,"æĬ¼":4612,"ä¸ĭéĿ¢":4613,"åī©":4614,"æĽ´å¥½":4615,"ĠTR":4616,"å£³":4617,"ĠHouse":4618,"Ġport":4619,"ç²ĺ":4620,"æº¶":4621,"æ¸ħæ¥ļ":4622,"ä¸ĬçļĦçĶ¨éĢĶ":4623,"ç²¾ç¥ŀ":4624,"åįıä¼ļ":4625,"åĬŀçĲĨ":4626,"ç¼ĸç¨ĭ":4627,"Ġode":4628,"ç®Ģåįķæııè¿°":4629,"å®¡æŁ¥":4630,"éļľç¢į":4631,"orgä¸ĬçļĦçĶ¨éĢĶ":4632,"lectronics":4633,"41":4634,"68":4635,"El":4636,"ne":4637,"Ġäº§åĵģ":4638,"ä¸įåŃĺåľ¨":4639,"åĨ¬":4640,"çī§":4641,"åĽ½çļĦ":4642,"å¹´ä»£":4643,"åĲĪéĩĳ":4644,"çĿĢå¥¹":4645,"çī©çļĦ":4646,"çĽ¸æľº":4647,"æł¼çļĦ":4648,"Ġ($":4649,"Ġ19":4650,"Ġler":4651,"å¸ĥé²ģ":4652,"æĶ¶è´¹":4653,"roid":4654,"è®©ä½ł":4655,"éĢĤåºĶ":4656,"åİŁå§ĭ":4657,"éĻ¤éĿŀ":4658,"æŀĦæĪĲ":4659,"é¢ĳéģĵ":4660,"ç®Ģä»ĭ":4661,"æĻ®éĢļ":4662,"æľīæķĪçļĦ":4663,"é¥®æĸĻ":4664,"02":4665,"Hip":4666,"QL":4667,"çļĦæµ·":4668,"åľ¨ä»»ä½ķ":4669,"åľ¨ç¾İåĽ½":4670,"Ġoh":4671,"åŃĶ":4672,"åŃķ":4673,"å®¶äºº":4674,"åºĶå¯¹":4675,"æĪ·å¤ĸ":4676,"å½ĵæĤ¨":4677,"ĠThe":4678,"èĤ¥":4679,"æ»¨":4680,"å¾Īå¥½çļĦ":4681,"è¯ģä¹¦":4682,"è®©æĪĳ":4683,"çķĮéĿ¢":4684,"ice":4685,"ä¾¿åĪ©":4686,"æĮīæĳ©":4687,"çĻ½èī²":4688,"æ¬§çĽŁ":4689,"Ġide":4690,"çĳŁ":4691,"æħķ":4692,"æŀ¶æŀĦ":4693,"å®£ä¼ł":4694,"æĹ¨åľ¨":4695,"å§ĵåĲį":4696,"å¯¿åĳ½":4697,"95":4698,"Br":4699,"DO":4700,"ĠçŃī":4701,"Ġç³»ç»Ł":4702,"åľ¨æĤ¨":4703,"Ġiy":4704,"åĨĴ":4705,"æĪĳä»¬æıĲä¾Ľ":4706,"çĲ´":4707,"ĠAG":4708,"ç¨¿":4709,"ç¾ŀ":4710,"çī¹å°Ķ":4711,"éľĩ":4712,"ĠEM":4713,"å¤ĸè§Ĥ":4714,"å»Ĭ":4715,"æł¼åħ°":4716,"æ¶Ľ":4717,"æ·«":4718,"éħįä»¶":4719,"Ġory":4720,"è§ĦèĮĥ":4721,"ä½łä»¬çļĦ":4722,"åĢ¼å¾Ĺ":4723,"ipt":4724,"ited":4725,"çŁ¥è¯Ĩäº§æĿĥ":4726,"æŃ£ç¡®çļĦ":4727,"æľĢè¿ĳçļĦ":4728,"able":4729,"æ¶Īè´¹èĢħ":4730,"åįĵè¶Ĭ":4731,"åĽ°éļ¾":4732,"ä¾¿å®ľçļĦ":4733,"Android":4734,"ä»Ķç»Ĩ":4735,"Ġå·²ç»ıç»ĵæĿŁleft":4736,"å·´å¡ŀç½Ĺ":4737,"acebook":4738,"150":4739,"43":4740,"ä»ĵ":4741,"è¿Ł":4742,"åĪĳ":4743,"æĺ¯ä¸į":4744,"æŀª":4745,"åıĳæĮ¥":4746,"éħĴåºĹä½įäºİ":4747,"æľĢå¥½":4748,"éĿ¢å¯¹":4749,"é«ĺè¾¾":4750,"é«ĺå°Ķå¤«":4751,"ä¹Łè®¸":4752,"åĪ¶å®ļ":4753,"çľĭäºĨ":4754,"éĥ¨ç½²":4755,"å¥½äºĨ":4756,"å¥½åĥı":4757,"è¯·åıĤ":4758,"æĪ¿åľ°äº§":4759,"èĤĿ":4760,"Ġary":4761,"æłĩè®°":4762,"Ġyl":4763,"Ġgl":4764,"æŁ±":4765,"ç©ºæĪ¿":4766,"é£İæĻ¯":4767,"è®¾è®¡çļĦ":4768,"æ¡Īä¾ĭ":4769,"åħįè´¹WiFi":4770,"å¼ºå¤§çļĦ":4771,"è¶³å¤Ł":4772,"çĵľ":4773,"ç®ĢåįķçļĦ":4774,"çī¹åĪ«æĺ¯":4775,"ight":4776,"Trip":4777,"ĠCenter":4778,"è¾ħå¯¼":4779,"ookie":4780,"å¦»åŃĲ":4781,"Texas":4782,"06":4783,"1000":4784,"port":4785,"âĶ":4786,"łéģĵ":4787,"çļĦæ°´":4788,"çļĦåħ¶ä»ĸ":4789,"Ġile":4790,"å·Ŀ":4791,"ä»¥å¤ĸ":4792,"æĭĶ":4793,"èµ¶":4794,"Ġux":4795,"ĠAB":4796,"çĲĨä½įç½®":4797,"åĲĮä¸Ģ":4798,"æĹ¥å¸¸":4799,"Ġere":4800,"ç«Ļåľ¨":4801,"å»ī":4802,"ä»»ä½ķäºº":4803,"å¤ĩä»½":4804,"çŃīçº§":4805,"Ġ16":4806,"Ġ18":4807,"åıĹæ¬¢è¿İ":4808,"å·¥ä½ľäººåĳĺ":4809,"åħĭæĸ¯":4810,"è¯ģæį®":4811,"ç»ĻæĪĳ":4812,"ç»´ä¿®":4813,"åĮħæĭ¬ä½Ĩä¸įéĻĲäºİ":4814,"ä¹¦éĿ¢":4815,"ence":4816,"åģĩæĹ¥":4817,"å±ŀæĢ§":4818,"ä¼Ĺå¤ļ":4819,"html":4820,"è®Ńç»ĥ":4821,"çªĹåı£":4822,"ASP":4823,"å¦ĩå¥³":4824,"çģ«è½¦ç«Ļ":4825,"çļĦçħ§çīĩ":4826,"Ser":4827,"Ġ[":4828,"Ġç½ĳç«Ļ":4829,"çļĦåİŁåĽł":4830,"åľ¨ä½ł":4831,"åĴĮä¸Ģä¸ª":4832,"çĽĹ":4833,"æ³ī":4834,"åħ¬è·¯":4835,"åħ¬æ°ĳ":4836,"æĸ¹çļĦ":4837,"é«ĺçļĦ":4838,"é«ĺåħ´":4839,"orld":4840,"ĠPh":4841,"é¦Ī":4842,"ĠMP":4843,"èµĦæľ¬":4844,"Ġpr":4845,"å·²è¢«":4846,"éĵľ":4847,"è¥¿åĵ¥":4848,"éĹ¨ç¥¨":4849,"æĮĩåĩº":4850,"å¥³åĦ¿":4851,"éĻĦåĬł":4852,"åįļå£«":4853,"åĪĨéĴŁæŃ¥è¡Įè·¯ç¨ĭ":4854,"åĵįåºĶ":4855,"åį°åĪ·":4856,"æĻļä¸Ĭ":4857,"ework":4858,"å·¥ç¨ĭå¸Ī":4859,"è´¢åĬ¡":4860,"åĿļæĮģ":4861,"ramework":4862,"çľŁæŃ£çļĦ":4863,"FileHip":4864,"å®¤å¤ĸæ¸¸æ³³æ±ł":4865,"FileHippo":4866,",âĢľ":4867,"03":4868,"05":4869,"Ac":4870,"Ro":4871,"de":4872,"ype":4873,"Ġå°Ĩ":4874,"ĠaC":4875,"åľ¨ä¸ŃåĽ½":4876,"ä¸ĢéĹ´":4877,"äºĨè¿Ļ":4878,"åıĳåĬ¨":4879,"çĲĨå¿µ":4880,"ĠCor":4881,"çĤİ":4882,"ä¹ĭä¸Ń":4883,"ĠII":4884,"ç±į":4885,"ĠPal":4886,"çĽ¸æ¯Ķ":4887,"å¾Īå¿«":4888,"äº¤æį¢":4889,"æĿĥéĻĲ":4890,"çģ°":4891,"ĠOr":4892,"å¸¦çĿĢ":4893,"ä»Ģä¹Īæĺ¯":4894,"çĲĥåľº":4895,"éŁ³é¢ĳ":4896,"è¿ŀç»Ń":4897,"æķ´åĲĪ":4898,"æİ¨å¹¿":4899,"èħ°":4900,"åħħåĪĨ":4901,"Chin":4902,"åŁºç¡Ģè®¾æĸ½":4903,"æī¹åĩĨ":4904,"åĨľä¸ļ":4905,"èĳ¡èĲĦéħĴ":4906,"èĳ¡èĲĦçīĻ":4907,"èĤ¯å®ļ":4908,"App":4909,"å¢¨è¥¿åĵ¥":4910,"èµĮåľº":4911,"07":4912,"VD":4913,"ber":4914,"net":4915,"ov":4916,"yst":4917,"Ġ20":4918,"å®Ļ":4919,"å®ł":4920,"ä¹Ļ":4921,"æĿ¨":4922,"æĤ¦":4923,"ä¸Ĭå¸Ĥ":4924,"æµ®":4925,"æĥ¯":4926,"å®¶éĩĮ":4927,"åĪĨå¸ĥ":4928,"åĪĨåĪ«":4929,"ä»¶äºĭ":4930,"ä¿¡å¿ĥ":4931,"éĿ¢ä¸´":4932,"æĽ´å¥½çļĦ":4933,"å®¢åİħ":4934,"ä»İè§Ĩé¢ĳ":4935,"èĤĮ":4936,"Ġct":4937,"ĠRO":4938,"Ġ11":4939,"åĲĳæĤ¨":4940,"Ġator":4941,"çģ¾":4942,"è·¯çº¿":4943,"Ġff":4944,"enue":4945,"å®īåħ¨æĢ§":4946,"ĠStation":4947,"æĵ¦":4948,"ç»ĨèĬĤ":4949,"è¿Ļä¸ĢçĤ¹":4950,"ä½ıå®¿åĬłæĹ©é¤Ĳ":4951,"404":4952,"åī§éĻ¢":4953,"Ġuck":4954,"å¹³æĸ¹ç±³":4955,"å±ģèĤ¡":4956,"TexasInst":4957,"âĶĢ":4958,"ystem":4959,");":4960,"Framework":4961,"Word":4962,"âĪ":4963,"Ġä¸İ":4964,"æĺ¯æľĢ":4965,"ä¸įéĶĪ":4966,"æĿ¥äºĨ":4967,"æľºåĴĮ":4968,"æľºåĪ¶":4969,"éħĴåºĹæıĲä¾Ľ":4970,"èĩªåĬ©":4971,"çĶµåĬĽ":4972,"ä¿¡ä»°":4973,"æĸ°è¥¿":4974,"ä¿Ŀéļľ":4975,"Ġany":4976,"éĥ½åľ¨":4977,"çī©çĲĨ":4978,"éĵĿ":4979,"Ġbo":4980,"reen":4981,"æ°Ķä½ĵ":4982,"å®ĮåĸĦ":4983,"åı°æ¹¾":4984,"éĢĤå½ĵ":4985,"æ°ĳä¸»":4986,"ild":4987,"èħĲ":4988,"ä½ľä¸ºä¸Ģä¸ª":4989,"äºĴåĬ¨":4990,"æĭħä»»":4991,"ipedia":4992,"ç¡¬ä»¶":4993,"åĽºå®ļ":4994,"é¡¾å®¢":4995,"ments":4996,"é»ĺè®¤":4997,"NETFramework":4998,"åĿĲèĲ½äºİ":4999}