{"<pad>":0,"<mask>":1,"<unk>":2,"<s>":3,"</s>":4,"!":5,"\"":6,"#":7,"$":8,"%":9,"&":10,"'":11,"(":12,")":13,"*":14,"+":15,",":16,"-":17,".":18,"/":19,"0":20,"1":21,"2":22,"3":23,"4":24,"5":25,"6":26,"7":27,"8":28,"9":29,":":30,";":31,"<":32,"=":33,">":34,"?":35,"@":36,"A":37,"B":38,"C":39,"D":40,"E":41,"F":42,"G":43,"H":44,"I":45,"J":46,"K":47,"L":48,"M":49,"N":50,"O":51,"P":52,"Q":53,"R":54,"S":55,"T":56,"U":57,"V":58,"W":59,"X":60,"Y":61,"Z":62,"[":63,"\\":64,"]":65,"^":66,"_":67,"`":68,"a":69,"b":70,"c":71,"d":72,"e":73,"f":74,"g":75,"h":76,"i":77,"j":78,"k":79,"l":80,"m":81,"n":82,"o":83,"p":84,"q":85,"r":86,"s":87,"t":88,"u":89,"v":90,"w":91,"x":92,"y":93,"z":94,"{":95,"|":96,"}":97,"~":98,"¡":99,"¢":100,"£":101,"¤":102,"¥":103,"¦":104,"§":105,"¨":106,"©":107,"ª":108,"«":109,"¬":110,"®":111,"¯":112,"°":113,"±":114,"²":115,"³":116,"´":117,"µ":118,"¶":119,"·":120,"¸":121,"¹":122,"º":123,"»":124,"¼":125,"½":126,"¾":127,"¿":128,"À":129,"Á":130,"Â":131,"Ã":132,"Ä":133,"Å":134,"Æ":135,"Ç":136,"È":137,"É":138,"Ê":139,"Ë":140,"Ì":141,"Í":142,"Î":143,"Ï":144,"Ð":145,"Ñ":146,"Ò":147,"Ó":148,"Ô":149,"Õ":150,"Ö":151,"×":152,"Ø":153,"Ù":154,"Ú":155,"Û":156,"Ü":157,"Ý":158,"Þ":159,"ß":160,"à":161,"á":162,"â":163,"ã":164,"ä":165,"å":166,"æ":167,"ç":168,"è":169,"é":170,"ê":171,"ë":172,"ì":173,"í":174,"î":175,"ï":176,"ð":177,"ñ":178,"ò":179,"ó":180,"ô":181,"õ":182,"ö":183,"÷":184,"ø":185,"ù":186,"ú":187,"û":188,"ü":189,"ý":190,"þ":191,"ÿ":192,"Ā":193,"ā":194,"Ă":195,"ă":196,"Ą":197,"ą":198,"Ć":199,"ć":200,"Ĉ":201,"ĉ":202,"Ċ":203,"ċ":204,"Č":205,"č":206,"Ď":207,"ď":208,"Đ":209,"đ":210,"Ē":211,"ē":212,"Ĕ":213,"ĕ":214,"Ė":215,"ė":216,"Ę":217,"ę":218,"Ě":219,"ě":220,"Ĝ":221,"ĝ":222,"Ğ":223,"ğ":224,"Ġ":225,"ġ":226,"Ģ":227,"ģ":228,"Ĥ":229,"ĥ":230,"Ħ":231,"ħ":232,"Ĩ":233,"ĩ":234,"Ī":235,"ī":236,"Ĭ":237,"ĭ":238,"Į":239,"į":240,"İ":241,"ı":242,"Ĳ":243,"ĳ":244,"Ĵ":245,"ĵ":246,"Ķ":247,"ķ":248,"ĸ":249,"Ĺ":250,"ĺ":251,"Ļ":252,"ļ":253,"Ľ":254,"ľ":255,"Ŀ":256,"ŀ":257,"Ł":258,"ł":259,"Ń":260,"Ġt":261,"Ġa":262,"in":263,"he":264,"on":265,"er":266,"re":267,"Ġthe":268,"at":269,"Ġs":270,"or":271,"nd":272,"es":273,"it":274,"Ġo":275,"Ġc":276,"en":277,"Ġw":278,"is":279,"ou":280,"an":281,"Ġf":282,"Ġp":283,"al":284,"ing":285,"ed":286,"Ġand":287,"ar":288,"Ġb":289,"Ġof":290,"Ġm":291,"Ġin":292,"ion":293,"Ġto":294,"ic":295,"Ġd":296,"ro":297,"le":298,"as":299,"Ġh":300,"ent":301,"el":302,"om":303,"il":304,"ct":305,"ĠS":306,"st":307,"ĠC":308,"Ġth":309,"Ġre":310,"ot":311,"et":312,"Ġy":313,"Ġl":314,"Ġn":315,"ation":316,"Ġe":317,"Ġyou":318,"ow":319,"ur":320,"id":321,"ĠA":322,"ut":323,"us":324,"ol":325,"Ġis":326,"ac":327,"ve":328,"Ġg":329,"ig":330,"ĠP":331,"ĠI":332,"im":333,"Ġfor":334,"am":335,"ad":336,"ĠT":337,"ĠM":338,"Ġon":339,"ay":340,"ers":341,"ith":342,"Ġbe":343,"ly":344,"Ġpro":345,"ch":346,"ce":347,"ir":348,"Ġwith":349,"ĠB":350,"ag":351,"ter":352,"Ġhe":353,"Ġst":354,"ver":355,"ĠH":356,"ment":357,"est":358,"Ġcon":359,"ĠD":360,"ul":361,"Ġor":362,"ri":363,"ĠL":364,"Ġan":365,"ab":366,"Ġ(":367,"ess":368,"od":369,"ĠR":370,"ap":371,"Ġthat":372,"un":373,"os":374,"ĠF":375,"Ġal":376,"if":377,"Ġit":378,"The":379,"qu":380,"Ġ1":381,"ity":382,"ort":383,"ĠG":384,"em":385,"and":386,"Ġas":387,"ant":388,"Ġcom":389,"Ġ2":390,"Ġare":391,"ate":392,"igh":393,"her":394,"op":395,"ore":396,"ain":397,"art":398,"ill":399,"ist":400,"ĠE":401,"ure":402,"Ġv":403,"rom":404,"ĠW":405,"ew":406,"Ġwh":407,"pp":408,"ect":409,"Ġfrom":410,"Ġyour":411,"Ġnot":412,"Ġex":413,"Ġde":414,"Ġr":415,"Ġwas":416,"ust":417,"Ġus":418,"ies":419,"ak":420,"ĠN":421,"um":422,"Ġat":423,"Ġsh":424,"oc":425,"age":426,"ld":427,"Ġk":428,"se":429,"ĠU":430,"our":431,"iv":432,"Ġse":433,"ight":434,"âĢ":435,"Ġsu":436,"Ġby":437,"res":438,"otel":439,"00":440,"nt":441,"ave":442,"ail":443,"all":444,"Ġcan":445,"ard":446,"ive":447,"ang":448,"Ġtr":449,"pe":450,"'s":451,"Ġthis":452,"ĠO":453,"per":454,"Ġ-":455,"ice":456,"out":457,"for":458,"ia":459,"Ġwe":460,"ine":461,"ial":462,"Ġch":463,"du":464,"act":465,"cc":466,"ok":467,"ud":468,"og":469,"are":470,"ost":471,"pt":472,"Ġall":473,"able":474,"ĠV":475,"ide":476,"Ġcomp":477,"ear":478,"ĠCh":479,"Ġu":480,"erv":481,"form":482,"Ġhave":483,"ast":484,"ell":485,"Ġle":486,"ions":487,"ip":488,"ĠJ":489,"Ġwill":490,"ork":491,"ated":492,"ther":493,"ite":494,"Ġcont":495,"ong":496,"ĠIn":497,"Ġme":498,"rou":499,"ĠSt":500,"Ġdo":501,"th":502,"port":503,"av":504,"ire":505,"hen":506,"ry":507,"ance":508,"ĠK":509,"ree":510,"ome":511,"Ġad":512,"Ġen":513,"iz":514,"ff":515,"ack":516,"duct":517,"ical":518,"ib":519,"Ġab":520,"lo":521,"Ġ3":522,"ations":523,"Ġpl":524,"ach":525,"lic":526,"Ġany":527,"ace":528,"Ġres":529,"gh":530,"ans":531,"Ġacc":532,"ark":533,"ind":534,"cl":535,"ame":536,"Ġman":537,"ich":538,"01":539,"ign":540,"ook":541,"ile":542,"Ġ\"":543,"fer":544,"Ġim":545,"Ġ,":546,"Ġgo":547,"Ġne":548,"ub":549,"ould":550,"ous":551,"Ġapp":552,"Ġro":553,"ult":554,"ge":555,"ĠThe":556,"Ġun":557,"Ġso":558,"Ġour":559,"lect":560,"Ġj":561,"ime":562,"ord":563,"Ġint":564,"ount":565,"Ġhas":566,"Ġup":567,"Ġmore":568,"ik":569,"ase":570,"ence":571,"ass":572,"ress":573,"ue":574,"Ġother":575,"Ġte":576,"Ġcl":577,"Ġhis":578,"own":579,"Ġbut":580,"so":581,"tern":582,"Th":583,"formation":584,"very":585,"vel":586,"one":587,"Ġher":588,"In":589,"pl":590,"Ġdis":591,"Ġout":592,"Ġpart":593,"ake":594,"ie":595,"iew":596,"ber":597,"ition":598,"ru":599,"Ġwhich":600,"ater":601,"Ġag":602,"Ġper":603,"ary":604,"Ġserv":605,"ra":606,"Ġsa":607,"ose":608,"ens":609,"ĠHotel":610,"Ġprov":611,"ish":612,"Ġ4":613,"ont":614,"ual":615,"Ġ.":616,"ices":617,"ft":618,"Ġhotel":619,"ep":620,"ings":621,"Ġone":622,"Ġdes":623,"yst":624,"ments":625,"ors":626,"Ġqu":627,"ond":628,"com":629,"Ġtime":630,"Ġtheir":631,"Ġproduct":632,"ound":633,"ll":634,"ational":635,"end":636,"Ġ/":637,"ates":638,"ov":639,"Ġabout":640,"Ġkn":641,"Ġuse":642,"Ġar":643,"ĠY":644,"Ġ201":645,"Ġthey":646,"ystem":647,"Ġinformation":648,"Ġ5":649,"Ġpr":650,"erm":651,"Ġalso":652,"Ġspe":653,"clud":654,"ian":655,"Ġits":656,"Ġsp":657,"ick":658,"ities":659,"..":660,"Ġind":661,"Ġoff":662,"Ġwork":663,"Ġshe":664,"It":665,"ild":666,"ility":667,"low":668,"ays":669,"Ġthem":670,"bs":671,"Ġmy":672,"reat":673,"ory":674,"chn":675,"ven":676,"ink":677,"olog":678,"cre":679,"Ġhim":680,"ata":681,"Ġfe":682,"Ġthere":683,"ĠPro":684,"ng":685,"Ġhad":686,"This":687,"cess":688,"Ġnew":689,"Ġpre":690,"ina":691,"ĠUn":692,"Ġwho":693,"ely":694,"Ġmap":695,"ÃĤ":696,"ck":697,"ature":698,"int":699,"ade":700,"ere":701,"old":702,"ise":703,"Ġrequ":704,"Ġinclud":705,"ĠRe":706,"orld":707,"anc":708,"ited":709,"part":710,"any":711,"ents":712,"itt":713,".\"":714,"Ġyear":715,"ĠâĢ":716,"Ġpe":717,"gr":718,"velop":719,"Ġmay":720,"Ġdet":721,"ific":722,"Ġcomm":723,"Ġloc":724,"use":725,"ons":726,"ject":727,"Ġrel":728,"We":729,"Ġwhen":730,"nder":731,"ric":732,"riv":733,"Ġav":734,"'t":735,"Ġsystem":736,"Ġroom":737,"ne":738,"rough":739,"Re":740,"Ġinto":741,"ower":742,"ics":743,"here":744,"Ġam":745,"Ġsuch":746,"iness":747,"ood":748,"ating":749,"ike":750,"amp":751,"ob":752,"enter":753,"etw":754,"hed":755,"les":756,"te":757,"Ġover":758,"You":759,"ange":760,"ines":761,"Wh":762,"ople":763,"Ġsaid":764,"Ġif":765,"urn":766,"Ġright":767,"Ġadd":768,"ĠCom":769,"ious":770,"Ġtrans":771,"ested":772,"Ġknow":773,"ove":774,"row":775,"Ġem":776,"Ġreg":777,"Ġonly":778,"ath":779,"Ġneed":780,"aw":781,"usiness":782,"Ġno":783,"Ġ6":784,"Ġthan":785,"ĠSe":786,"ĠSh":787,"Ġbeen":788,"Ġhigh":789,"Ġsupp":790,"ert":791,"Ġavail":792,"Ġco":793,"Ġinter":794,"Ġwhat":795,"irst":796,"Ġact":797,"Ġwant":798,"ĠTh":799,"cial":800,"Ġpers":801,"ible":802,"ty":803,"Ã¢":804,"portant":805,"Ġmod":806,"ful":807,"Ġph":808,"Ġwere":809,"land":810,"ai":811,"enc":812,"ning":813,"iss":814,"Ġdata":815,"ally":816,"ustom":817,"ails":818,"Ġcons":819,"chnolog":820,"âĤ":821,"Ġshow":822,"Ġimp":823,"âĤ¬":824,"Ġ)":825,"Ġdevelop":826,"Ġ19":827,"ied":828,"fter":829,"Ġpeople":830,"ĠDe":831,"Ch":832,"Ġsc":833,"ware":834,"Ġtw":835,"ock":836,"Ġbr":837,"ax":838,"Ġ7":839,"Ġunder":840,"round":841,"ss":842,"Ġgu":843,"ool":844,"He":845,"If":846,"ife":847,"Ġcol":848,"âĢĻ":849,"Ġthrough":850,"Ġworld":851,"Ġprovid":852,"pen":853,"ough":854,"ĠChina":855,"lp":856,"olut":857,"fore":858,"Ġlike":859,"xt":860,"ank":861,"Ġrec":862,"oy":863,"Ġcar":864,"mer":865,"uring":866,"Sh":867,"Ġlook":868,"iles":869,"ĠWe":870,"irect":871,"ality":872,"Ġbec":873,"ries":874,"Ġmin":875,"ĠAr":876,"ages":877,"air":878,"RL":879,"ener":880,"ternational":881,"Ġexp":882,"Ġmost":883,"ption":884,"Ġfirst":885,"âĢĿ":886,"arket":887,"Ġbu":888,"wn":889,"Ġhow":890,"els":891,"ouse":892,"Ġthese":893,"Ġ0":894,"ection":895,"view":896,"Ġsee":897,"Ġinst":898,"Ġ9":899,"io":900,"Ġprocess":901,"Ġhelp":902,"Ġ&":903,"Ġexper":904,"ular":905,"way":906,"oth":907,"Ġperson":908,"Ġ8":909,"ren":910,"Ġservice":911,"ience":912,"Ġbusiness":913,"Ġsm":914,"lease":915,"ĠURL":916,"Ġgr":917,"Ġjust":918,"Ġdesign":919,"ient":920,"Ġset":921,"Ġavailable":922,"ours":923,"ased":924,"Ġget":925,").":926,"ĠGod":927,"ause":928,"Ġsome":929,"Ġwould":930,"ee":931,"Ġapplic":932,"Ġback":933,"elf":934,"Ġcustom":935,"oint":936,"ys":937,"Ġmet":938,"Ġaccess":939,"Ġdif":940,"Ġass":941,"Ġfl":942,"oss":943,"alk":944,"Ġsec":945,"Ġeff":946,"load":947,"Ġrem":948,"vent":949,"Ġcre":950,"Ġshall":951,"Ġgood":952,"Ġaut":953,"rol":954,"ts":955,"Ġvis":956,"ĠTe":957,"Ġdown":958,"ĠEx":959,"Ġyears":960,"Ġ:":961,"Ġfound":962,"ĠBe":963,"ier":964,"Ġdetails":965,"Ġwell":966,"partment":967,"gan":968,"Ġtwo":969,"ability":970,"Ġkm":971,"rib":972,"Ġatt":973,"Ġvery":974,"apter":975,"ruct":976,"Ġke":977,"line":978,"Ġthen":979,"ĠServ":980,"Ġresp":981,"con":982,"Ġfree":983,"Ġser":984,"Ġ10":985,"Ġmake":986,"chnology":987,"ily":988,"Ġhand":989,"ĠNew":990,"Ġevery":991,"pr":992,"ner":993,"ness":994,"Ġdid":995,".,":996,"ĠRo":997,"Ġac":998,"ivers":999,"ble":1000,"led":1001,"Ġcount":1002,"Ġval":1003,"Im":1004,"Ġmon":1005,"ĠTr":1006,"Ġagain":1007,"ĠAd":1008,"?\"":1009,"roup":1010,"als":1011,"Ġ200":1012,"ublic":1013,"),":1014,"And":1015,"Ġhotels":1016,"Ġequ":1017,"Ġbl":1018,"ĠIt":1019,"Ġused":1020,"au":1021,"ĠCo":1022,"âĢľ":1023,"How":1024,"een":1025,"Ġproducts":1026,"co":1027,"ests":1028,"ĠZ":1029,"ollow":1030,"Ġche":1031,"Ġmain":1032,"der":1033,"hes":1034,"ron":1035,"Ġmany":1036,"ident":1037,"What":1038,"Ġbel":1039,"get":1040,"Ġoffer":1041,"ĠSu":1042,"Ġshould":1043,"ize":1044,"ting":1045,"its":1046,"min":1047,"Ġnow":1048,"Ġoper":1049,"10":1050,"Ġinv":1051,"Ġindust":1052,"bsite":1053,"ĠQ":1054,"Ġair":1055,"Ġpol":1056,"eng":1057,"Ġcomple":1058,"Ġservices":1059,"For":1060,"ward":1061,"ah":1062,"az":1063,"ĠPl":1064,"Ġown":1065,"ral":1066,"Ġty":1067,"other":1068,"Ġnear":1069,"agement":1070,"Ġafter":1071,"ites":1072,"arm":1073,"Ġform":1074,"Ġoffers":1075,"ures":1076,"ĠUnited":1077,"ix":1078,"ative":1079,"Ġdiffer":1080,"ces":1081,"ĠMan":1082,"Ġsub":1083,"eld":1084,"ized":1085,"Ġhere":1086,"Ġlong":1087,"Ġway":1088,"Ġlife":1089,"arch":1090,"Ġeven":1091,"Ġrequire":1092,"hing":1093,"Ġwhere":1094,"Ġcur":1095,"ĠUS":1096,"ĠX":1097,"ale":1098,"ĠHe":1099,"Ġincluding":1100,"ug":1101,"ator":1102,"Ġcould":1103,"lish":1104,"ern":1105,"Ġpower":1106,"edia":1107,"Ġfollow":1108,"ĠSp":1109,"ĠGu":1110,"Important":1111,"less":1112,"ĠIs":1113,"19":1114,"°æ":1115,"ĠDat":1116,"Ġproper":1117,"ftware":1118,"è¡":1119,"aterial":1120,"æķ":1121,"Ġpass":1122,"ĠFr":1123,"Ġcontrol":1124,"Ġday":1125,"è¡¨":1126,"cept":1127,"Ġsupport":1128,"į®":1129,"Ġdist":1130,"°æį®":1131,"æķ°æį®":1132,"Ġconf":1133,"æķ°æį®è¡¨":1134,"etween":1135,"heet":1136,"Ġbest":1137,"Ġstand":1138,"ital":1139,"tain":1140,"Ġpur":1141,"Ġmarket":1142,"ER":1143,"up":1144,"Show":1145,"Ġhours":1146,"iet":1147,"Ġrep":1148,"Ġprof":1149,"Ġdel":1150,"Requ":1151,"gy":1152,"aking":1153,"ĠAnd":1154,"ute":1155,"Ġdoes":1156,"Ġnum":1157,"ract":1158,"ather":1159,"ĠRes":1160,"resent":1161,"red":1162,"Ġob":1163,"30":1164,"uss":1165,"IN":1166,"rit":1167,"Ġbetween":1168,"ows":1169,"hip":1170,"Ġusing":1171,"iqu":1172,"Ġbefore":1173,"Requested":1174,"Ġsim":1175,"ĠInd":1176,"ants":1177,"Ġins":1178,"ional":1179,"Ġprot":1180,"ĠâĢĵ":1181,"uch":1182,"Ġview":1183,"Ġdon":1184,"ural":1185,"But":1186,"ph":1187,"Ġsur":1188,"to":1189,"ĠCl":1190,"Ġadv":1191,"lick":1192,"ene":1193,"ĠCont":1194,"Ġful":1195,"Ġdirect":1196,"Ġsame":1197,"Ġcap":1198,"ON":1199,"arge":1200,"room":1201,"asheet":1202,"TM":1203,"ĠPage":1204,"St":1205,"Ġfac":1206,"Ġrest":1207,"Ġname":1208,"000":1209,"ĠCon":1210,"Ġstud":1211,"ipp":1212,"ars":1213,"ĠDatasheet":1214,"Ġfin":1215,"Ġmach":1216,"She":1217,"ict":1218,"50":1219,"ilities":1220,"Ġstr":1221,"Ġmust":1222,"iron":1223,"Ġwithout":1224,"Ġext":1225,"gram":1226,"Ġelect":1227,"Ġend":1228,"OR":1229,"ec":1230,"Ġed":1231,"Ġopen":1232,"Ġmaterial":1233,"aph":1234,"Pro":1235,"Ġcompany":1236,"Ġdev":1237,"20":1238,"Ġmade":1239,"Ġgener":1240,"icro":1241,"Ġgreat":1242,"Ġperform":1243,"Ġcor":1244,"Ġresult":1245,",\"":1246,"Ġfr":1247,"Ġmem":1248,"ĠPh":1249,"cri":1250,"arg":1251,"ple":1252,"ration":1253,"ĠAn":1254,"Ġfeature":1255,"ced":1256,"ĠEng":1257,"Ġenter":1258,"aly":1259,"Ġwithin":1260,"There":1261,"Ġdifferent":1262,"Ġeach":1263,"ĠAl":1264,"rist":1265,"Ġmiles":1266,"outh":1267,"ince":1268,"Ġbre":1269,"Ġquality":1270,"etwork":1271,"ever":1272,"Ġtake":1273,"Ġbo":1274,"Ġcond":1275,"ĠAir":1276,"fact":1277,"Ad":1278,"Ġfam":1279,"ets":1280,"ision":1281,"ives":1282,"...":1283,"atch":1284,"ium":1285,"por":1286,"Ġcity":1287,"Ġthink":1288,"rent":1289,"Ġprovide":1290,"Ġsolut":1291,"Ġlist":1292,"Ġterm":1293,"Ġcent":1294,"ann":1295,"omm":1296,"Ġdevelopment":1297,"Ġent":1298,"ues":1299,"acy":1300,"Ġstart":1301,"Ġvar":1302,"ird":1303,"Ġfind":1304,"ersion":1305,"è¯":1306,"Ġrece":1307,"Ġconn":1308,"Ġspec":1309,"Ġchild":1310,"ote":1311,"utes":1312,"Ġsay":1313,"Ġarea":1314,"ç»":1315,"ç´":1316,"ĠLe":1317,"orn":1318,"Ġfun":1319,"Ġbook":1320,"Ġwater":1321,"Ġlead":1322,"ically":1323,"Ġeas":1324,"ĠPr":1325,"Ġ@":1326,"Ĩæ":1327,"ization":1328,"Ġrooms":1329,"Ĳľ":1330,"ĠStates":1331,"è¯¦":1332,"ç´¢":1333,"Ĳľç´¢":1334,"As":1335,"day":1336,"Ġtechnology":1337,"Ġcho":1338,"ç»Ĩæ":1339,"è¯¦ç»Ĩæ":1340,"è¯¦ç»ĨæĲľç´¢":1341,"Ġ>":1342,"ering":1343,"ode":1344,"Ġplace":1345,"tic":1346,"Ġcall":1347,"asp":1348,"Ġdec":1349,"ton":1350,"Ġproject":1351,"Ġcle":1352,"Ġbecause":1353,"ism":1354,"ished":1355,"aur":1356,"td":1357,"riend":1358,"aut":1359,"ĠÃ¢":1360,"Ġlaw":1361,"Ġvide":1362,"erry":1363,"ĠInternational":1364,"ĠComp":1365,"Ġsign":1366,"itions":1367,"ected":1368,"Ġboth":1369,"Ġdef":1370,"urity":1371,"Ġlevel":1372,"Work":1373,"Ġreal":1374,"avel":1375,"ek":1376,"und":1377,"Ġret":1378,"Ġev":1379,"Ġdisc":1380,"Ġnumber":1381,"ield":1382,"Ġread":1383,"alth":1384,"omet":1385,"ared":1386,"AN":1387,"AT":1388,"iver":1389,"ery":1390,"Ġaccount":1391,"ified":1392,"ccess":1393,"Ġopt":1394,"rive":1395,"ody":1396,"To":1397,"Ġtem":1398,"ames":1399,"Ġstay":1400,"Ġbed":1401,"ĠBl":1402,"ify":1403,"Ġcommun":1404,"Ġlight":1405,"Hotel":1406,"Ġspecial":1407,"Chapter":1408,"Ġsw":1409,"Ġinf":1410,"Ġorder":1411,"Ġaway":1412,"ĠCity":1413,"conom":1414,"Ġpriv":1415,"Ġcontin":1416,"ĠÃĤ":1417,"Ġexperience":1418,"Ġtrad":1419,"Ġ[":1420,"Ġcontent":1421,"ash":1422,"ufact":1423,"imes":1424,"oun":1425,"Ġcert":1426,"uc":1427,"read":1428,"self":1429,"rop":1430,"Ġthose":1431,"vern":1432,"ins":1433,"Ġ15":1434,"Ġaround":1435,"Ġ12":1436,"Ġ18":1437,"Ġsite":1438,"ternet":1439,"Ġphot":1440,"ex":1441,"ten":1442,"Ġmuch":1443,"Ġreview":1444,"ĠDes":1445,"ross":1446,"inese":1447,"stand":1448,"ĠCent":1449,"Ġref":1450,"When":1451,"Ġbuild":1452,"ownload":1453,"Ġpersonal":1454,"iversity":1455,"aj":1456,"app":1457,"Ġcome":1458,"pend":1459,"Ġwebsite":1460,"Ġlocated":1461,"Ġautom":1462,"201":1463,"ux":1464,"ĠFor":1465,"Ġplay":1466,"ted":1467,"Ġpage":1468,"ury":1469,"iving":1470,"Ġcontact":1471,"Ġsoftware":1472,"ommod":1473,"Ġwalk":1474,"Ġprogram":1475,"ipment":1476,"Ġpartic":1477,"EN":1478,"ĠAs":1479,"Ġvisit":1480,"Ġagree":1481,"ĠService":1482,"Ġselect":1483,"Ġmeet":1484,"Ġimpro":1485,"Working":1486,"Ġwhile":1487,"Ġhome":1488,"bo":1489,"Ġincre":1490,"ung":1491,"12":1492,"ĠMar":1493,"Ġ20":1494,"hor":1495,"Ġtest":1496,"aster":1497,"uman":1498,"ĠYou":1499,"Ġsk":1500,"ency":1501,"af":1502,"Ġtop":1503,"ction":1504,"Ġeffect":1505,"Ġcost":1506,"orth":1507,"ains":1508,"Ġactiv":1509,"Ġindustry":1510,"Ġorgan":1511,"Ġmanagement":1512,"Ġhouse":1513,"loy":1514,"icy":1515,"lob":1516,"On":1517,"viron":1518,"ually":1519,"Ġpost":1520,"Ġproduction":1521,"Ġposs":1522,"pos":1523,"ination":1524,"of":1525,"Ġold":1526,"ĠPol":1527,"Ġ$":1528,"ards":1529,"All":1530,"Ġpublic":1531,"Ġtool":1532,"Ġnetwork":1533,"aspx":1534,"err":1535,"Ġask":1536,"Ġgroup":1537,"ĠChrist":1538,"An":1539,"uro":1540,"Ġthough":1541,"Ġeng":1542,"Ġstre":1543,"ense":1544,"ason":1545,"Ġbeing":1546,"Ġhead":1547,"ĠThis":1548,"ved":1549,"Ġfact":1550,"ĠPark":1551,"ĠBr":1552,"ample":1553,"Ġthree":1554,"itional":1555,"ification":1556,"rict":1557,"Ġsmall":1558,"Ġmachine":1559,"egr":1560,"arn":1561,"ights":1562,"ĠOr":1563,"Ġproperty":1564,"akes":1565,"Ġfeatures":1566,"ms":1567,"ĠCol":1568,"ĠChinese":1569,"Ġfore":1570,"Su":1571,"ling":1572,"Ġwr":1573,"Ġheart":1574,"ource":1575,"ique":1576,"angu":1577,"AR":1578,"Ġaccommod":1579,"Ġsaf":1580,"ET":1581,"Ġpop":1582,"Ġdays":1583,"ploy":1584,"earch":1585,"ieve":1586,"11":1587,"Ġpoint":1588,"Ġhard":1589,"aces":1590,"Ġimportant":1591,"Ġminutes":1592,"sh":1593,"Ġturn":1594,"Ġduring":1595,"ĠLtd":1596,"opy":1597,"Ġthird":1598,"Ġide":1599,"atic":1600,"Ġcour":1601,"ases":1602,"Ġleft":1603,"Ġhost":1604,"Ġcurrent":1605,"Ġest":1606,"ĠTV":1607,"ocial":1608,"Our":1609,"ways":1610,"Ġonline":1611,"Ġmeas":1612,"ibility":1613,"ĠComm":1614,"ission":1615,"40":1616,"ĠSc":1617,"creen":1618,"itor":1619,"ane":1620,"ider":1621,"Ġprom":1622,"Ġserver":1623,"by":1624,"de":1625,"Ġfriend":1626,"vert":1627,"ĠWh":1628,"ittle":1629,"aff":1630,"ales":1631,"perature":1632,"Ġfollowing":1633,"ves":1634,"ateg":1635,"Ġlet":1636,"Ġlim":1637,"Ġaddress":1638,"So":1639,"With":1640,"inal":1641,"ES":1642,"att":1643,"Ġbath":1644,"Ġchange":1645,"ister":1646,"Ġgoing":1647,"Ġprovides":1648,"joy":1649,"par":1650,"Ġstill":1651,"Ġcollect":1652,"Ġinternational":1653,"meric":1654,"vironment":1655,"AC":1656,"ately":1657,"Ġi":1658,"Ġet":1659,"They":1660,"ĠRoad":1661,"ey":1662,"raph":1663,"Ġlow":1664,"aving":1665,"Ġsl":1666,"Ġmen":1667,"Ġanother":1668,"ĠInst":1669,"Ġmonth":1670,"Ġtype":1671,"chool":1672,"Ġinvest":1673,"Ġuser":1674,"Ġapplication":1675,"anies":1676,"Ġinclude":1677,"itc":1678,"ember":1679,"bers":1680,"Ġdem":1681,"lev":1682,"ĠUs":1683,"Ġperformance":1684,"atter":1685,"ĠCan":1686,"Ġcustomers":1687,"pport":1688,"ĠInn":1689,"esus":1690,"Ġcame":1691,"apan":1692,"ĠGerm":1693,"dom":1694,"ott":1695,"Ġconst":1696,"aining":1697,"ording":1698,"obile":1699,"Ġkey":1700,"Ġfacilities":1701,"Ġfile":1702,"Ġdr":1703,"ĠEnglish":1704,"oor":1705,"Ġmult":1706,"icon":1707,"ential":1708,"olid":1709,"Ġusers":1710,"ĠProduct":1711,"Ġapartment":1712,"ĠApartment":1713,"Ġapplications":1714,"Ġcheck":1715,"ior":1716,"ined":1717,"Ġpos":1718,"Ġpay":1719,"Ġrun":1720,"Ġinstall":1721,"face":1722,"Ġnight":1723,"Ġgrow":1724,"At":1725,"ising":1726,"Ġlocal":1727,"Ġcare":1728,"lex":1729,"Ġeconom":1730,"Ġ24":1731,"ists":1732,"ources":1733,"Ġmanufact":1734,"fort":1735,"man":1736,"Ġfew":1737,"Ġgl":1738,"Ġgre":1739,"ĠOn":1740,"ĠInformation":1741,"Ġprice":1742,"Ġcountry":1743,"Ġflow":1744,"Ġbased":1745,"US":1746,"Ġlo":1747,"cription":1748,"Al":1749,"the":1750,"ĠAmeric":1751,"ĠFree":1752,"Ġleg":1753,"Ġchildren":1754,"ij":1755,"Ġbet":1756,"Ġhist":1757,"ĠApp":1758,"Ġcomput":1759,"Ġplan":1760,"Ġ'":1761,"Ġlarge":1762,"Ġsecurity":1763,"itu":1764,"Ġport":1765,"Ġthings":1766,"Ġgive":1767,"Ġchang":1768,"Ġ30":1769,"Ġmed":1770,"Ġey":1771,"Ġsomet":1772,"Ġwent":1773,"Ġword":1774,"hai":1775,"Ġinc":1776,"ĠEuro":1777,"thing":1778,"Ġequipment":1779,"IS":1780,"fast":1781,"med":1782,"ams":1783,"indows":1784,"Ġcompanies":1785,"ĠServices":1786,"uck":1787,"rem":1788,"lobal":1789,"15":1790,"br":1791,"ences":1792,"16":1793,"AS":1794,"Ġpat":1795,"Ġens":1796,"Ġfull":1797,"200":1798,"sw":1799,"pecial":1800,"ĠAirport":1801,"ining":1802,"ĠSo":1803,"Ġnon":1804,"Ġenjoy":1805,"Ġgovern":1806,"Ġland":1807,"Ġexc":1808,"Ġsecond":1809,"ribut":1810,"Ġrespons":1811,"orm":1812,"Ġstate":1813,"ĠFl":1814,"ivid":1815,"ĠStre":1816,"Ġcr":1817,"ĠAll":1818,"Ġunderstand":1819,"isk":1820,"Ġmov":1821,"Ġclass":1822,"ĠMicro":1823,"irl":1824,"Ġjo":1825,"ĠUniversity":1826,"atural":1827,"Ġlittle":1828,"rial":1829,"Ġintegr":1830,"Ġagainst":1831,"li":1832,"Ġfeel":1833,"Ġrights":1834,"ĠItaly":1835,"13":1836,"yn":1837,"Ġreport":1838,"ĠAg":1839,"Ġnext":1840,"Ġ2016":1841,"Ġpresent":1842,"let":1843,"ĠSw":1844,"Ġdispl":1845,"ĠAm":1846,"Ġable":1847,"Ġcustomer":1848,"oh":1849,"put":1850,"ĠSer":1851,"Ġste":1852,"Ġcountries":1853,"Ġvideo":1854,"25":1855,"Ġredu":1856,"Ġline":1857,"Ġ16":1858,"Ġexample":1859,"Ġkeep":1860,"zh":1861,"Ġclick":1862,"ĠJesus":1863,"inc":1864,"Ġsens":1865,"Ġput":1866,"lement":1867,"illion":1868,"be":1869,"oot":1870,"Ġplease":1871,"Ġlast":1872,"akfast":1873,"Ġenvironment":1874,"âĤ¬âĢľ":1875,"Ġfood":1876,"Ġbro":1877,"ried":1878,"opp":1879,"ocu":1880,"ired":1881,"itted":1882,"Ġfamily":1883,"Ġaff":1884,"erries":1885,"aring":1886,"ĠCenter":1887,"ĠMy":1888,"lier":1889,"Ġlove":1890,"Ġalways":1891,"Ġrequested":1892,"Ġcreate":1893,"ze":1894,"ories":1895,"Ġtoo":1896,"ĠPar":1897,"Ġproble":1898,"Ġexpl":1899,"Ġtravel":1900,"Ġlog":1901,"IT":1902,"nov":1903,"Ãĥ":1904,"ised":1905,"Ġsolutions":1906,"Ġpress":1907,"Ġdi":1908,"Ġdom":1909,"ape":1910,"Ġrange":1911,"Ġupon":1912,"18":1913,"Com":1914,"cent":1915,"ym":1916,"Ġsat":1917,"Ġhuman":1918,"ĠHome":1919,"ĠView":1920,"Ġappro":1921,"Ġsystems":1922,"ĠQu":1923,"ĠMin":1924,"anghai":1925,"ledge":1926,"enef":1927,"Do":1928,"ingle":1929,"Ġbody":1930,"Ġlink":1931,"ĠGo":1932,"ĠNo":1933,"Ġclose":1934,"Ġlooked":1935,"'re":1936,"ĠAb":1937,"Please":1938,"igital":1939,"ĠMore":1940,"ĠKing":1941,"Ġguests":1942,"ructure":1943,"AL":1944,"UR":1945,"ners":1946,"Ġwom":1947,"Ġtyp":1948,"oud":1949,"Ġbeh":1950,"ulation":1951,"ĠJapan":1952,"irit":1953,"Ġallow":1954,"17":1955,"Fi":1956,"Tr":1957,"Ġdrive":1958,"ĠCar":1959,"ables":1960,"Ġexist":1961,"Ġpract":1962,"Ġlocation":1963,"Ġbecome":1964,"Ġimprove":1965,"ĠStreet":1966,"Ġfil":1967,"ĠWi":1968,"fect":1969,"rip":1970,"ĠGr":1971,"usic":1972,"Ġ17":1973,"ĠWorld":1974,"Ġweb":1975,"Ġchar":1976,"14":1977,"aim":1978,"Ġwar":1979,"Ġhig":1980,"ticle":1981,"ĠDesign":1982,"iety":1983,"ĠSk":1984,"Ġparty":1985,"Ġago":1986,"Ġmaterials":1987,"Ġfront":1988,"mail":1989,"vers":1990,"Ġhealth":1991,"ference":1992,"Ġtemperature":1993,"Ġface":1994,"Ġfield":1995,"ada":1996,"osp":1997,"ump":1998,"Ġrelated":1999,"Ġtimes":2000,"Ġless":2001,"ĠOff":2002,"Ġemploy":2003,"iable":2004,"ety":2005,"ĠLord":2006,"ĠInternet":2007,"Ġreturn":2008,"Ġbetter":2009,"Â®":2010,"Ġsuccess":2011,"Ġtechn":2012,"lished":2013,"ĠBar":2014,"ĠHotels":2015,"Ġfre":2016,"iven":2017,"Ġart":2018,"ajor":2019,"No":2020,"hod":2021,"Ġmight":2022,"ĠWeb":2023,"word":2024,"Ġflo":2025,"Ġrese":2026,"idd":2027,"ĠEn":2028,"Hotels":2029,"IC":2030,"ĠSouth":2031,"ĠCO":2032,"Ġquest":2033,"Ġeasy":2034,"itchen":2035,"Ġiss":2036,"Ġanal":2037,"ĠChapter":2038,"Ġprivate":2039,"eration":2040,"ouble":2041,"Ġrent":2042,"ively":2043,"oney":2044,"Ġbig":2045,"Ġdest":2046,"Ġlangu":2047,".âĢĿ":2048,"Ġtook":2049,"Ġneeds":2050,"side":2051,"Ġtell":2052,"Ġfiles":2053,"Ġbas":2054,"uture":2055,"ancial":2056,"Ġcase":2057,"urther":2058,"idence":2059,"aging":2060,"Ġcomb":2061,"istics":2062,"Ġunt":2063,"Ġtick":2064,"ones":2065,"Ġbeaut":2066,"verage":2067,"ĠHost":2068,"ands":2069,"ney":2070,"Ġprovided":2071,"Ġaccommodation":2072,"atform":2073,"aper":2074,"Ġprofess":2075,"ĠEurope":2076,"Ar":2077,"gin":2078,"not":2079,"uk":2080,"roll":2081,"ĠTo":2082,"irc":2083,"Ġ25":2084,"oci":2085,"Ġclos":2086,"anced":2087,"Ġsince":2088,"Ġcard":2089,"istration":2090,"Ġcomplete":2091,"Ġclean":2092,"Ġpossible":2093,"Ġsomething":2094,"yle":2095,"Ġpres":2096,"ĠSan":2097,"ids":2098,"Ġweek":2099,"ĠVersion":2100,"Ġnever":2101,"Ġaccept":2102,"ino":2103,"ĠGroup":2104,"Ġ21":2105,"Ġkind":2106,"ĠBeach":2107,"ha":2108,"ming":2109,"Ġve":2110,"Ġ14":2111,"ĠRoom":2112,"Ġvalue":2113,"Ġcertain":2114,"Ġcomputer":2115,"itive":2116,"Ġwhe":2117,"ĠSystem":2118,"ĠPart":2119,"Ġteam":2120,"80":2121,"cy":2122,"Ġpar":2123,"ĠRep":2124,"ĠFe":2125,"Ġrequirements":2126,"EC":2127,"pro":2128,"erg":2129,"ats":2130,"Ġocc":2131,"Ġmajor":2132,"Ġreally":2133,"comm":2134,"Ġeffic":2135,"Ġdevice":2136,"ĠCompany":2137,"Ex":2138,"gg":2139,"ying":2140,"Ġsitu":2141,"Ġcal":2142,"Ġbenef":2143,"urch":2144,"Ġengine":2145,"OS":2146,"Un":2147,"Ġel":2148,"ĠAt":2149,"ĠTechnology":2150,"IP":2151,"we":2152,"Ġcult":2153,"Ġcenter":2154,"Ġpri":2155,"Ġhold":2156,"ĠAust":2157,"ived":2158,"Ġcommunic":2159,"aint":2160,"ured":2161,"Ġrequired":2162,"Ġconditions":2163,"Ġcopy":2164,"Ġlot":2165,"used":2166,"ysis":2167,"ruction":2168,"Ġfuture":2169,"Ġmess":2170,"imum":2171,"ĠMe":2172,"Ġ100":2173,"ipedia":2174,"Ġreserv":2175,"ikipedia":2176,"ĠâĢľ":2177,"Ġmodern":2178,"Ġbuilding":2179,"ergy":2180,"Ġdam":2181,"ster":2182,"olution":2183,"Ġstandard":2184,"Us":2185,"sc":2186,"Ġpark":2187,"Ġdocu":2188,"Ġ13":2189,"soft":2190,"zhou":2191,"Ġtalk":2192,"Ġfav":2193,"Ġpool":2194,"Ġcourse":2195,"Ġes":2196,"Ġident":2197,"abor":2198,"Ġquick":2199,"Ġindivid":2200,"vious":2201,"Ġside":2202,"ĠHong":2203,"ĠEd":2204,"raw":2205,"Ġphotos":2206,"Ġsure":2207,"ither":2208,"Ġpack":2209,"ides":2210,"Ġstore":2211,"arden":2212,"ĠPort":2213,"irt":2214,"ĠLoc":2215,"ained":2216,"Ġworking":2217,"Ġbathroom":2218,"ype":2219,"Ġreason":2220,"urg":2221,"Ġenergy":2222,"Ġamong":2223,"Ġresults":2224,"Ġcharact":2225,"net":2226,"Ġsocial":2227,"ĠRuss":2228,"ĠWindows":2229,"ograph":2230,"Ġmean":2231,"ED":2232,"More":2233,"Ġbar":2234,"elt":2235,"ĠCor":2236,"ĠPriv":2237,"ĠInt":2238,"Ġperfect":2239,"ilt":2240,"ĠAut":2241,"Add":2242,"Ġresearch":2243,"now":2244,"Ġtreat":2245,"ention":2246,"Ġconsider":2247,"Ġobject":2248,"hib":2249,"iod":2250,"sp":2251,"Ġferry":2252,"Ġlive":2253,"une":2254,".[":2255,"Ġsize":2256,"Ġtoday":2257,"ĠAss":2258,"useum":2259,"ĠShanghai":2260,"Ġterms":2261,"Ġspecific":2262,"aid":2263,"ĠLa":2264,"ĠNational":2265,"Ġsend":2266,"ips":2267,"ĠYork":2268,"ĠFrance":2269,"Ġestab":2270,"23":2271,"Cont":2272,"come":2273,"Ġorig":2274,"quare":2275,"ills":2276,"Ġauthor":2277,"Ġthought":2278,"Ġpopular":2279,"'ll":2280,"yd":2281,"orage":2282,"Ġfour":2283,"Ġareas":2284,"Ġ50":2285,"Ġspace":2286,"prise":2287,"Ġeyes":2288,"Ġdesk":2289,"Ġconnect":2290,"over":2291,"eter":2292,"ĠDis":2293,"Ġ11":2294,"Ġvarious":2295,"Ġdisplay":2296,"hem":2297,"ili":2298,"Ġvol":2299,"Ġdownload":2300,"ĠSite":2301,"change":2302,"ĠHouse":2303,"ĠVide":2304,"ended":2305,"Ġetc":2306,"ĠFin":2307,"Ġdoor":2308,"That":2309,"Ġemail":2310,"Ġasked":2311,"Ġcamp":2312,"Ġinnov":2313,"ush":2314,"Ġconc":2315,"iful":2316,"ĠKong":2317,"Ġtext":2318,"Ġaddition":2319,"Ġcalled":2320,"aurant":2321,"ijing":2322,"Ġuntil":2323,"TD":2324,"Ġpast":2325,"Ġmom":2326,"ently":2327,"ĠBu":2328,"Ġmethod":2329,"ĠUSD":2330,"24":2331,"Ġmeans":2332,"ternal":2333,"partments":2334,"Ġlooking":2335,"Ġfunction":2336,"Ġindividual":2337,"ĠReg":2338,"lands":2339,"Ġexpress":2340,"Gu":2341,"arly":2342,"Ġlic":2343,"ĠIm":2344,"Ġansw":2345,"ope":2346,"iol":2347,"Ġsingle":2348,"Ġmar":2349,"imate":2350,"ĠTerm":2351,"augh":2352,"Ġcontinu":2353,"ana":2354,"Ġlarg":2355,"Ġgame":2356,"These":2357,"Other":2358,"Ġcut":2359,"ental":2360,"Ġabove":2361,"Ġupd":2362,"Ġoffic":2363,"Ġrequest":2364,"AD":2365,"By":2366,"ees":2367,"right":2368,"Ġtable":2369,"apt":2370,"ports":2371,"However":2372,"Ġmove":2373,"Ġshare":2374,"ipped":2375,"After":2376,"ham":2377,"mit":2378,"ram":2379,"ĠÂ":2380,"Ġwind":2381,"ager":2382,"unity":2383,"arth":2384,"ĠElect":2385,"ĠNot":2386,"Ġsolution":2387,"Ġchoose":2388,"alf":2389,"Ġloss":2390,"Ġnatural":2391,"Ġcannot":2392,"ellent":2393,"ances":2394,"Ġbelow":2395,"Ġreviews":2396,"AM":2397,"ients":2398,"Ġach":2399,"Ġconsum":2400,"ĠIndust":2401,"Ġcondition":2402,"ĠPal":2403,"rael":2404,"ĠWebsite":2405,"Ġacross":2406,"Ġdeliver":2407,"ring":2408,"heck":2409,"ĠDownload":2410,"ĠWith":2411,"Ġsever":2412,"ĠInc":2413,"Ġprotection":2414,"Download":2415,"ao":2416,"uly":2417,"Ġtre":2418,"era":2419,"Ġmaking":2420,"ask":2421,"irm":2422,"Ġensure":2423,"60":2424,"ION":2425,"rant":2426,"ators":2427,"ises":2428,"Ġmusic":2429,"ĠPe":2430,"Ġprodu":2431,"Ġshort":2432,"leg":2433,"ĠFerries":2434,"Ġcompet":2435,"clus":2436,"Ġposition":2437,"EL":2438,"Ġcode":2439,"Ġpot":2440,"Ġtoget":2441,"ull":2442,"Ġcomfort":2443,"Ġwhy":2444,"Ġwhole":2445,"rows":2446,"Ġtogether":2447,"Ġschool":2448,"Ġmobile":2449,"Ġliving":2450,"Ġstrong":2451,"27":2452,"Ġstep":2453,"Ġinterest":2454,"Ġrepresent":2455,"ĠMicrosoft":2456,"Be":2457,"Ġmind":2458,"Ġtot":2459,"ĠBo":2460,"Ġavailability":2461,"Ġbring":2462,"Ġdesigned":2463,"ORD":2464,"Ġparticular":2465,"'m":2466,"mber":2467,"Ġx":2468,"Ġthing":2469,"ĠIN":2470,"Ġ2014":2471,"ID":2472,"enn":2473,"alt":2474,"ley":2475,"Ġstat":2476,"Ġrate":2477,"Is":2478,"press":2479,"iting":2480,"Ġlay":2481,"Ġgot":2482,"ĠNorth":2483,"Ġcompon":2484,"ĠStation":2485,"Ġprotect":2486,"opping":2487,"NET":2488,"most":2489,"ese":2490,"ĠMod":2491,"ules":2492,"ĠGre":2493,"empl":2494,"pplier":2495,"Ġcommon":2496,"Ġdidn":2497,"ĠAdd":2498,"ĠIsrael":2499,"Ġpurch":2500,"Ġreceive":2501,"ready":2502,"Ġsound":2503,"ift":2504,"Ġkitchen":2505,"?âĢĿ":2506,"cel":2507,"oul":2508,"Then":2509,"Ġrisk":2510,"ume":2511,"Ġaccording":2512,"Ġstudents":2513,"DF":2514,"ians":2515,"site":2516,"org":2517,"Ġfurther":2518,"chan":2519,"Ġlearn":2520,"iple":2521,"ronics":2522,"Ġbelieve":2523,"lin":2524,"Ġtour":2525,"Ġevent":2526,"amb":2527,"Ġmodel":2528,"Ġairport":2529,"Ġeduc":2530,"pose":2531,"ony":2532,"Ġmillion":2533,"illa":2534,"ivity":2535,"Ġsearch":2536,"Ġnecess":2537,"Ġperiod":2538,"Ġknown":2539,"Ġ199":2540,"ronic":2541,"elect":2542,"Ġmedia":2543,"Ġdate":2544,"ĠIf":2545,"Ġunique":2546,"ĠDevelop":2547,"Ġmonitor":2548,"Ġgovernment":2549,"uan":2550,"Ġgiven":2551,"Ġplatform":2552,"Read":2553,"Ġrespect":2554,"Ġfully":2555,"ecut":2556,"cript":2557,"Ġoptions":2558,"Ġbeautiful":2559,"ext":2560,"Ġopport":2561,"Ġmot":2562,"ĠAcc":2563,"Ġnote":2564,"Ġsepar":2565,"resh":2566,"ĠVal":2567,"Ġarch":2568,"Ġactivities":2569,"Des":2570,"ault":2571,"book":2572,"iang":2573,"Ġfoc":2574,"ĠCal":2575,"Ġgirl":2576,"ĠLORD":2577,"ogn":2578,"Ġaccur":2579,"Ġimage":2580,"My":2581,"Ġcook":2582,"Ġdigital":2583,"idge":2584,"Ġglobal":2585,"ĠHigh":2586,"aken":2587,"Ġresources":2588,"ĠContent":2589,"Ġdevices":2590,"22":2591,"itect":2592,"Ġhapp":2593,"ĠAf":2594,"Ġbegan":2595,"arent":2596,"Ġappear":2597,"Ġparts":2598,"ĠSec":2599,"Ġmembers":2600,"ground":2601,"Ġsol":2602,"Ġlater":2603,"ĠMarket":2604,"Ġann":2605,"ems":2606,"ENT":2607,"Ġhistory":2608,"ĠKingdom":2609,"Bl":2610,"EM":2611,"yl":2612,"Ġwin":2613,"Ġlat":2614,"ondon":2615,"Ġhands":2616,"New":2617,"Your":2618,"oice":2619,"Ġoften":2620,"ops":2621,"Ġothers":2622,"Ġclaim":2623,"Ġresponsible":2624,"Ġtypes":2625,"door":2626,"Ġstorage":2627,"Ġalready":2628,"istance":2629,"Ġspeed":2630,"Ġpolicy":2631,"ĠManagement":2632,"Ġmonths":2633,"Ġanalysis":2634,"ties":2635,"ule":2636,"zer":2637,"Ġsites":2638,"ĠMet":2639,"ford":2640,"wards":2641,"ĠGermany":2642,"Ġtax":2643,"ered":2644,"Ġscreen":2645,"Ġsales":2646,"oly":2647,"ĠBusiness":2648,"Ġenc":2649,"ibr":2650,"Ġlanguage":2651,"Ġmoment":2652,"Ġdue":2653,"oking":2654,"ube":2655,"Ġprec":2656,"Ġrecord":2657,"Ġprofile":2658,"Ġchoice":2659,"Ġeconomic":2660,"medi":2661,"Ġpressure":2662,"33":2663,"One":2664,"cer":2665,"ches":2666,"Ġbegin":2667,"ĠData":2668,"ĠRed":2669,"ĠEm":2670,"Ġking":2671,"lood":2672,"Ġ40":2673,"Ġfinancial":2674,"Ġheav":2675,"Ġsuper":2676,"Ġattract":2677,"ĠTrans":2678,"enger":2679,"Product":2680,"Ġbreakfast":2681,"Supplier":2682,"OL":2683,"wise":2684,"atory":2685,"Ġmoney":2686,"ĠSem":2687,"Ġalong":2688,"Ġvia":2689,"ĠWest":2690,"Ġincludes":2691,"Ġrelations":2692,"Ġtransfer":2693,"ĠBeijing":2694,"cover":2695,"Ġdirectly":2696,"Ġsafety":2697,"Ġjobs":2698,"iddle":2699,"ĠAustral":2700,"En":2701,"Loc":2702,"Ġsent":2703,"Ġpub":2704,"ots":2705,"Ġapply":2706,"Ġparties":2707,"Ġsaw":2708,"ĠYour":2709,"Ġinde":2710,"Ġamount":2711,"fully":2712,"chnologies":2713,"ĠAsia":2714,"21":2715,"val":2716,"Ġcirc":2717,"ison":2718,"star":2719,"ĠMap":2720,"Ġviol":2721,"Ġpartners":2722,"oliday":2723,"ires":2724,"oid":2725,"Ġoil":2726,"Ġwatch":2727,"Ġmount":2728,"icult":2729,"Ġyoung":2730,"Ġspeak":2731,"Ġflat":2732,"ĠResort":2733,"Ġbox":2734,"Ġtools":2735,"vis":2736,"Ġfast":2737,"ĠMac":2738,"cret":2739,"Ġseries":2740,"Con":2741,"iability":2742,"Ġaud":2743,"itation":2744,"elcome":2745,"ĠAnt":2746,"ĠBed":2747,"Ġrates":2748,"itten":2749,"Ġcover":2750,"Ġfriends":2751,"De":2752,"ched":2753,"Ġsource":2754,"Ġwall":2755,"arant":2756,"Ġnational":2757,"ĠLondon":2758,"unic":2759,"emb":2760,"Ġadmin":2761,"Ġ...":2762,"rought":2763,"minute":2764,"Ġelectric":2765,"Ġgeneral":2766,"ĠCentre":2767,"Ġmeasure":2768,"Ġhigher":2769,"Ġwhether":2770,"Ġfavor":2771,"Book":2772,"Cl":2773,"Ġfar":2774,"ĠSm":2775,"Ġstaff":2776,"Ġang":2777,"ĠProf":2778,"vention":2779,"Ġchanges":2780,"Ġcharacter":2781,"Av":2782,"Qu":2783,"me":2784,"ara":2785,"Ġhour":2786,"Ġever":2787,"Ġallows":2788,"Ġunto":2789,"rench":2790,"aurants":2791,"ĠPolicy":2792,"Ġexcellent":2793,"26":2794,"ke":2795,"lim":2796,"oon":2797,"Ġmatter":2798,"Ġdone":2799,"ĠLTD":2800,"astic":2801,"Ġplaces":2802,"eneral":2803,"Ġcred":2804,"Ġcentre":2805,"Ġparticip":2806,"Ġstreng":2807,"mitted":2808,"sel":2809,"Ġwa":2810,"Ġpict":2811,"Ġprocessing":2812,"Ġmaintain":2813,"Ġsubject":2814,"ĠCentral":2815,"TR":2816,"mark":2817,"pect":2818,"Ġ+":2819,"Ġsil":2820,"Ġcell":2821,"ouch":2822,"Ġhaving":2823,"Ġyet":2824,"elling":2825,"Ġ2015":2826,"ĠâĢĶ":2827,"Ġconfig":2828,"iconduct":2829,"Now":2830,"Res":2831,"itness":2832,"Ġmakes":2833,"urance":2834,"ĠRom":2835,"ĠState":2836,"Ġimplement":2837,"Ġprofessional":2838,"28":2839,"AP":2840,"Ph":2841,"mission":2842,"uel":2843,"atically":2844,"Ġbal":2845,"Ġbus":2846,"Ġla":2847,"oll":2848,"ĠPC":2849,"ĠPer":2850,"ĠHis":2851,"Ġant":2852,"Ġ27":2853,"ief":2854,"Ġknowledge":2855,"Ġpassword":2856,"Ġoptim":2857,"ategory":2858,"Not":2859,"aul":2860,"cle":2861,"ole":2862,"erson":2863,"Ġconven":2864,"Ġprint":2865,"Ġtransport":2866,"Ġpurpose":2867,"Ġsimple":2868,"just":2869,"Ġsun":2870,"Ġwide":2871,"ĠMuseum":2872,"Ġheld":2873,"ĠDr":2874,"ffee":2875,"Ġregard":2876,"ING":2877,"Ġforeign":2878,"crib":2879,"ma":2880,"Ġage":2881,"Ġsav":2882,"Ġfail":2883,"icated":2884,"igation":2885,"ĠPre":2886,"Ġdeal":2887,"IL":2888,"erve":2889,"Ġcreat":2890,"rodu":2891,"aged":2892,"âĢĶ":2893,"ptember":2894,"Ġsett":2895,"Ġvideos":2896,"Ġcosts":2897,"Ġsafe":2898,"Ġlegal":2899,"ĠTerms":2900,"Ġtotal":2901,"--":2902,"ivery":2903,"su":2904,"ari":2905,"Ġbank":2906,"ached":2907,"angzhou":2908,"Ġtrade":2909,"ogle":2910,"Ġworks":2911,"Ġentire":2912,"Ġincrease":2913,"Ġlimited":2914,"ĠProducts":2915,"pre":2916,"Ġfire":2917,"asing":2918,"Ġrepl":2919,"Ġrecomm":2920,"Ġeither":2921,"ĠMay":2922,"Ġcomes":2923,"operation":2924,"Ġnotice":2925,"Ġregul":2926,"ĠSoftware":2927,"Ġseveral":2928,"Pl":2929,"go":2930,"hold":2931,"light":2932,"Ġself":2933,"Ġdriv":2934,"ilar":2935,"ĠAS":2936,"Ġprop":2937,"Ġknew":2938,"Why":2939,"Ġtechnical":2940,"bit":2941,"oo":2942,"ona":2943,"ilit":2944,"Ġleast":2945,"Ġcam":2946,"eth":2947,"Ġtransl":2948,"Ġproviding":2949,"Ġassoci":2950,"Ġequipped":2951,"porate":2952,"ĠAmerican":2953,"Ġproblem":2954,"99":2955,"hest":2956,"ĠFound":2957,"oke":2958,"hens":2959,"ĠKore":2960,"Ġdescription":2961,"itting":2962,"Ġconnection":2963,"Ġnecessary":2964,"Ġlatest":2965,"zz":2966,"Ġmag":2967,"aced":2968,"ĠBre":2969,"ĠDist":2970,"Ġsupply":2971,"pecially":2972,"Ġfloor":2973,"ober":2974,"ream":2975,"Ġbrows":2976,"ĠMed":2977,"Ġonce":2978,"ector":2979,"Ġsuff":2980,"Ġotherwise":2981,"Ġoperating":2982,"ĠParis":2983,"36":2984,"Find":2985,"Ġmax":2986,"Ġground":2987,"Ġstation":2988,"ĠStud":2989,"Ġrecogn":2990,"Ġdiff":2991,"\".":2992,"ua":2993,"Ġsum":2994,"Ġsave":2995,"Ġfive":2996,"Ġflex":2997,"Ġtold":2998,"ĠMon":2999,"ĠEl":3000,"Ġversion":3001,"Ġnothing":3002,"Ġcontract":3003,"Ġ2018":3004,"Ġphys":3005,"Ġticket":3006,"CO":3007,"HP":3008,"View":3009,"screen":3010,"Ġ#":3011,"Ġerr":3012,"itut":3013,"Ġple":3014,"ica":3015,"urs":3016,"river":3017,"Ġwhite":3018,"Ġdepend":3019,"Ġtry":3020,"Ġchall":3021,"raft":3022,"Ġideal":3023,"Ġeducation":3024,"ĠAfric":3025,"35":3026,"iam":3027,"rast":3028,"Ġmor":3029,"Ġdeep":3030,"Ġchann":3031,"ĠSte":3032,"Ġ2012":3033,"ology":3034,"Ġphone":3035,"Ġdeveloped":3036,"ĠArt":3037,"Ġoffering":3038,"Ġleading":3039,"Ġdiscuss":3040,"ohn":3041,"bon":3042,"bed":3043,"itch":3044,"Ġfather":3045,"ĠAc":3046,"Ġstop":3047,"Ġstructure":3048,"ĠDirect":3049,"ably":3050,"Ġtrue":3051,"Ġimport":3052,"Ġ2017":3053,"Ġrelax":3054,"Ġproperties":3055,"Ġsteel":3056,"ĠRepublic":3057,"Ġoriginal":3058,"emplate":3059,"70":3060,"cing":3061,"ox":3062,"Ġther":3063,"Ġtown":3064,"ĠTw":3065,"ĠBest":3066,"appen":3067,"osed":3068,"Ġdoing":3069,"Ġhimself":3070,"Ġwanted":3071,"ĠCanada":3072,"Ġgrowth":3073,"Ġload":3074,"IM":3075,"based":3076,"iation":3077,"eral":3078,"rect":3079,"Ġlost":3080,"amic":3081,"ĠDep":3082,"ĠRest":3083,"ĠWikipedia":3084,"Ġsea":3085,"ĠSeptember":3086,"Ġindustrial":3087,"32":3088,"RO":3089,"gu":3090,"ving":3091,"Ġz":3092,"Ġmark":3093,"Ġhappen":3094,"ille":3095,"uth":3096,"ceed":3097,"aps":3098,"Ġmechan":3099,"Ġoutside":3100,"Ġadditional":3101,"Ġregion":3102,"Ġregister":3103,"Ġstandards":3104,"Ġvariety":3105,"Ġwritten":3106,"Ġpromot":3107,"Ġrental":3108,"Ġprior":3109,"90":3110,"ray":3111,"Ġaf":3112,"Ġsays":3113,"ament":3114,"ĠMal":3115,"Ġbeach":3116,"ĠOct":3117,"Ġimmedi":3118,"Ġroad":3119,"Ġadvant":3120,"uxury":3121,"Ġwords":3122,"Te":3123,"pg":3124,"Ġcause":3125,"ĠSearch":3126,"ama":3127,"ĠBy":3128,"apore":3129,"Ġtraining":3130,"Ġbrand":3131,"ĠNews":3132,"ĠUser":3133,"Ġdomain":3134,"ĠDevelopment":3135,"hic":3136,"Ġfurn":3137,"omb":3138,"ett":3139,"Ġcommer":3140,"Ġcomplex":3141,"Ġdistribut":3142,"Ġinvestment":3143,"Ġachieve":3144,"ged":3145,"na":3146,"ä¸":3147,"erc":3148,"ingapore":3149,"arget":3150,"ĠAug":3151,"Ġdeath":3152,"Ġcloud":3153,"Ġspirit":3154,"Ġdeterm":3155,"Ġoperation":3156,"Ġcapac":3157,"TML":3158,"Ġlevels":3159,"ĠGerman":3160,"Ġquickly":3161,"Ġofficial":3162,"Ġpotential":3163,"Ab":3164,"Ġsle":3165,"ĠLog":3166,"earn":3167,"ension":3168,"Ġprices":3169,"Ġprinc":3170,"ĠProt":3171,"ĠContact":3172,"oom":3173,"Ġoption":3174,"Ġca":3175,"Ġmother":3176,"Ġinit":3177,"roid":3178,"Ġhot":3179,"Ġreach":3180,"emark":3181,"ĠInter":3182,"Ġanything":3183,"Ġprevious":3184,"ĠOnline":3185,"ĠSemiconduct":3186,"Ġce":3187,"Ġfa":3188,"aser":3189,"ĠSant":3190,"unch":3191,"Ġalmost":3192,"ĠOld":3193,"Ġeverything":3194,"Ġmemory":3195,"Ġturned":3196,"Ġsituation":3197,"Ġcomponents":3198,"'ve":3199,"From":3200,"bour":3201,"jpg":3202,"Ġfoot":3203,"Ġpain":3204,"Ġearth":3205,"ĠBud":3206,"ĠNe":3207,"Ġneeded":3208,"Ġprocesses":3209,"Ġwomen":3210,"CD":3211,"lies":3212,"Ã©":3213,"Ġblood":3214,"ĠCas":3215,"ĠRel":3216,"Ġsex":3217,"ireless":3218,"izing":3219,"Ġ60":3220,"airs":3221,"Ġattack":3222,"Ġopened":3223,"irtual":3224,"Home":3225,"ks":3226,"Ġaverage":3227,"isc":3228,"Ġfund":3229,"ĠHow":3230,"Ġ23":3231,"ework":3232,"ival":3233,"ĠOut":3234,"Ġadvert":3235,"Ġincluded":3236,"Ġbuilt":3237,"Ġfunct":3238,"Ġsignific":3239,"levant":3240,"!\"":3241,"Some":3242,"Ġmass":3243,"Ġred":3244,"ided":3245,"Ġdocument":3246,"App":3247,"iency":3248,"Ġtaken":3249,"Ġrefer":3250,"ĠID":3251,"umb":3252,"Ġoffice":3253,"Ġviews":3254,"Ġsurface":3255,"Ġprojects":3256,"ĠPrivacy":3257,"selves":3258,"Or":3259,"back":3260,"ler":3261,"Ġhalf":3262,"ĠII":3263,"ĠFrench":3264,"antly":3265,"illed":3266,"istr":3267,"duction":3268,"ĠRead":3269,"ength":3270,"ĠAmerica":3271,"Ġfocus":3272,"RE":3273,"SS":3274,"time":3275,"itable":3276,"Ġwon":3277,"Ġbott":3278,"Ġdraw":3279,"ayer":3280,"ĠBal":3281,"ĠBut":3282,"Ġstyle":3283,"Ġ22":3284,"Ġenough":3285,"Ġsimilar":3286,"Ġreceived":3287,"ger":3288,"house":3289,"Ġlik":3290,"ĠTour":3291,"ĠFore":3292,"ĠEst":3293,"ĠEast":3294,"resident":3295,"Ġoutdoor":3296,"ensive":3297,"Ġexperi":3298,"Ġcreated":3299,"Ġobtain":3300,"303":3301,"Ġsaying":3302,"Ġtraditional":3303,"Ġespecially":3304,"Ġconditioning":3305,"ead":3306,"Â©":3307,"Ġsin":3308,"Ġinternet":3309,"Ġhair":3310,"Ġnature":3311,"Ġgave":3312,"ĠIT":3313,"ades":3314,"ĠHar":3315,"Ġcoming":3316,"ored":3317,"ĠWar":3318,"Ġseen":3319,"Ġcontroll":3320,"Ġcooperation":3321,"riting":3322,"phone":3323,"Ġeasily":3324,"Ġcommunity":3325,"Ġdemand":3326,"ĠServer":3327,"Ġemployees":3328,"clusive":3329,"74":3330,"Check":3331,"gress":3332,"anch":3333,"Ġfelt":3334,"Ġdry":3335,"Ġgarden":3336,"ĠBook":3337,"Ġord":3338,"istic":3339,"Ġarriv":3340,"ĠProv":3341,"issions":3342,"Ġbuy":3343,"Ġrespond":3344,"Ġcontinue":3345,"Ġproblems":3346,"Ġwoman":3347,"Ġissues":3348,"Ġtreatment":3349,"ĠAustralia":3350,"Ġdifficult":3351,"ĠOctober":3352,"CH":3353,"den":3354,"ply":3355,"Ġcrit":3356,"urb":3357,"uration":3358,"ĠMach":3359,"ague":3360,"ĠFrom":3361,"Ġexchange":3362,"ĠName":3363,"Ġneg":3364,"Ġ2013":3365,"Ġhowever":3366,"Ġgraph":3367,"Ġclear":3368,"Ġdamage":3369,"Search":3370,"Well":3371,"cast":3372,"Ġut":3373,"anish":3374,"Ġbit":3375,"ĠIP":3376,"ĠBid":3377,"ĠLine":3378,"ĠFile":3379,"illing":3380,"ailed":3381,"heng":3382,"Ġtechnologies":3383,"Ġmember":3384,"Ġhistor":3385,"Ġlargest":3386,"ĠGreen":3387,"Ġcredit":3388,"son":3389,"yp":3390,"Ġcable":3391,"Ġgold":3392,"ĠPower":3393,"Ġstars":3394,"aily":3395,"though":3396,"venue":3397,"Ġtherefore":3398,"Ġpeace":3399,"âĤ¬âĢĿ":3400,"Ġsmart":3401,"Ġdistrict":3402,"Ġenterprise":3403,"Ġautomatically":3404,"Ġmanufacturing":3405,"Ġquestion":3406,"Ġcommercial":3407,"75":3408,"estern":3409,"isions":3410,"ĠSingapore":3411,"olf":3412,"Ġgas":3413,"Ġgames":3414,"ĠMr":3415,"Ġbecom":3416,"ĠGe":3417,"oph":3418,"ĠWord":3419,"reement":3420,"Ġplant":3421,"Ġstarted":3422,"tenance":3423,"Ġreduce":3424,"Ġarchitect":3425,"MP":3426,"hour":3427,"Ġlower":3428,"Ġdecl":3429,"Ġtrust":3430,"Ġleave":3431,"ples":3432,"raz":3433,"ĠReview":3434,"Ġcoll":3435,"Ġbecame":3436,"Ġpolit":3437,"Ġcapital":3438,"Ġexisting":3439,"Ġefficient":3440,"Ind":3441,"rical":3442,"set":3443,"va":3444,"alian":3445,"ĠIS":3446,"ĠTor":3447,"ĠGold":3448,"Ġyourself":3449,"ĠOther":3450,"Ġcontain":3451,"oved":3452,"Ġcolor":3453,"Ġrestaurant":3454,"Ġprivacy":3455,"Ġtesting":3456,"Ġdrink":3457,"ĠEuropean":3458,"Ġindepend":3459,"34":3460,"Ġtim":3461,"Ġtaking":3462,"inations":3463,"Ġrelevant":3464,"ĠAre":3465,"ĠMil":3466,"ĠDel":3467,"Ġvoice":3468,"Ġseem":3469,"iples":3470,"Ġnews":3471,"ĠReal":3472,"ĠGoogle":3473,"Ġquestions":3474,"fr":3475,"wide":3476,"Ġiron":3477,"orry":3478,"Ġpan":3479,"ico":3480,"Ġearly":3481,"ĠBel":3482,"agram":3483,"hern":3484,"ĠOne":3485,"Ġcharg":3486,"Ġsoon":3487,"Ġquite":3488,"Ġhighly":3489,"Ġguarant":3490,"Ġmarketing":3491,"ĠIndia":3492,"Ġevents":3493,"ĠWhat":3494,"Ġgreater":3495,"Ġintegrated":3496,"Ġcommunication":3497,"Ġwindow":3498,"Click":3499,"Ġver":3500,"Ġæķ°æį®è¡¨":3501,"inate":3502,"ena":3503,"ĠCam":3504,"eters":3505,"amework":3506,"Ġstar":3507,"Ġadjust":3508,"Ġcommand":3509,"Ġemerg":3510,"Ġaction":3511,"Ġinvol":3512,"ĠSpirit":3513,"Ġdistance":3514,"Ġedit":3515,"Ġready":3516,"Ġselection":3517,"board":3518,"Ġglass":3519,"ĠRussia":3520,"Avg":3521,"ĠAugust":3522,"ges":3523,"Ġ]":3524,"Ġtarget":3525,"Ġcross":3526,"Ġforward":3527,"aya":3528,"Ġheat":3529,"alls":3530,"ĠON":3531,"ude":3532,"ĠJan":3533,"Ġvalues":3534,"ipping":3535,"Ġmedical":3536,"Ġrelationship":3537,"100":3538,"ĠMos":3539,"ĠBro":3540,"Ġanaly":3541,"que":3542,"ĠWork":3543,"Ġtrack":3544,"ĠSuites":3545,"Ġcomplet":3546,"Ġpassenger":3547,"Ġadvanced":3548,"Ġlaws":3549,"ĠAgreement":3550,"ĠWiFi":3551,"Ġestablished":3552,"Ġimmediately":3553,"Are":3554,"ST":3555,"lu":3556,"ania":3557,"ession":3558,"apest":3559,"Ġ28":3560,"istry":3561,"Ġra":3562,"ĠOf":3563,"ruments":3564,"Ġdescrib":3565,"Ġsecure":3566,"ĠBlack":3567,"ropri":3568,"Ġmeeting":3569,"Ġmultiple":3570,"ging":3571,"uary":3572,"inary":3573,"Ġwid":3574,"arning":3575,"Ġbase":3576,"Ġbrought":3577,"ĠPass":3578,"ĠBang":3579,"Ġuses":3580,"ĠJune":3581,"Ġimages":3582,"Ġthroughout":3583,"ĠExpress":3584,"Ġblock":3585,"Ġcorrect":3586,"ĠPhot":3587,"ĠEngine":3588,"Ġleaders":3589,"ĠOffice":3590,"ĠVideo":3591,"Ġfaith":3592,"Pr":3593,"eal":3594,"reg":3595,"itute":3596,"Ġdark":3597,"ĠCap":3598,"ĠCamp":3599,"acher":3600,"ĠLim":3601,"Ġ26":3602,"Ġexam":3603,"Ġrad":3604,"Ġrout":3605,"ellig":3606,"aching":3607,"Ġarm":3608,"ĠShow":3609,"ĠIsland":3610,"Ġpayment":3611,"ĠHostel":3612,"Ġculture":3613,"Contact":3614,"29":3615,"See":3616,"onse":3617,"Ġsection":3618,"Ġparent":3619,"aries":3620,"Ġharm":3621,"ĠSchool":3622,"Ġthous":3623,"Ġrev":3624,"urt":3625,"ĠPlease":3626,"umn":3627,"ĠUse":3628,"ivil":3629,"Ġtruth":3630,"duc":3631,"Ġabs":3632,"Ġsole":3633,"Ġdise":3634,"Ġfeed":3635,"Ġprep":3636,"Ġchem":3637,"Ġlonger":3638,"Ġcapacity":3639,"gen":3640,"sk":3641,"Ġfine":3642,"Ġpath":3643,"ags":3644,"illage":3645,"Ġdele":3646,"ĠJuly":3647,"Ġaccord":3648,"onder":3649,"rown":3650,"oyal":3651,"Ġgoods":3652,"Ġconstruction":3653,"Comp":3654,"ĠJapanese":3655,"Fe":3656,"TER":3657,"cont":3658,"Ġson":3659,"Ġfish":3660,"Ġbad":3661,"Ġmer":3662,"ĠSil":3663,"ĠSaint":3664,"ĠSquare":3665,"ĠAct":3666,"ĠGree":3667,"Ġsubs":3668,"Ġbutton":3669,"Ġguest":3670,"ĠGuest":3671,"Ġactivity":3672,"Ġorganiz":3673,"Ġcookies":3674,"ĠSemiconductor":3675,"Acc":3676,"free":3677,"rid":3678,"wh":3679,"head":3680,"Ġwarm":3681,"Ġded":3682,"Ġdouble":3683,"lements":3684,"ĠBank":3685,"Ġheard":3686,"Ġconcept":3687,"ĠFerry":3688,"ĠGeneral":3689,"Ġdepos":3690,"see":3691,"Ġsugg":3692,"Ġjour":3693,"Ġ2011":3694,"Ġmetres":3695,"ATION":3696,"ĠAbout":3697,"Ġhappy":3698,"ibrary":3699,"vest":3700,"Ġcases":3701,"Ġpaper":3702,"Ġlab":3703,"ĠAP":3704,"ĠAng":3705,"Ġforce":3706,"estic":3707,"ĠLin":3708,"ĠVis":3709,"Ġrole":3710,"Ġdiscl":3711,"Ġeffort":3712,"Ġvalid":3713,"Ġfrequ":3714,"ĠEnter":3715,"ters":3716,"Ġcou":3717,"Ġwood":3718,"ĠCount":3719,"urer":3720,"ĠBack":3721,"ĠRights":3722,"Ġdead":3723,"ĠJohn":3724,"Ġroll":3725,"Ġarticle":3726,"Ġinterface":3727,"Ġbackground":3728,"Ġdelivery":3729,"Ġinsp":3730,"undred":3731,"Ġinstallation":3732,"hibition":3733,"Where":3734,"burg":3735,"ror":3736,"inter":3737,"Ġsus":3738,"ening":3739,"oub":3740,"Ġhon":3741,"ĠCond":3742,"ĠPresident":3743,"Ġconduct":3744,"Ġanim":3745,"Ġtrain":3746,"ĠOpen":3747,"Thank":3748,"Ġstudy":3749,"ĠOrgan":3750,"ĠIndustry":3751,"Ġfavorite":3752,"Ġmaximum":3753,"ooth":3754,"Ġtrip":3755,"Ġfix":3756,"Ġmicro":3757,"str":3758,"iding":3759,"ĠAv":3760,"aches":3761,"ĠBay":3762,"ĠOur":3763,"Ġimpact":3764,"Ġexpert":3765,"Ġadvance":3766,"ĠPhil":3767,"Ġtrademark":3768,"Ġmenu":3769,"Ġbehind":3770,"nowledge":3771,"Ġpurchase":3772,"Ġstrength":3773,"Ġbrowser":3774,"rastructure":3775,"\",":3776,"55":3777,"File":3778,"Sp":3779,"ya":3780,"Ġess":3781,"Ġpie":3782,"ĠCour":3783,"ownt":3784,"ĠAccess":3785,"utor":3786,"ĠTai":3787,"ĠType":3788,"aker":3789,"Ġshopping":3790,"Ġcharge":3791,"aves":3792,"Ġjoint":3793,"Ġdisp":3794,"Ġitself":3795,"ilding":3796,"Ġinteract":3797,"Ġexpect":3798,"Ġbelie":3799,"gypt":3800,"Ġcentral":3801,"Ġgroups":3802,"ĠGrand":3803,"verse":3804,"Ġparking":3805,"ĠDistrict":3806,"Ġmorning":3807,"Can":3808,"ml":3809,"rance":3810,"top":3811,"iter":3812,"itle":3813,"Ġpick":3814,"Ġdat":3815,"ette":3816,"ache":3817,"iger":3818,"ĠDub":3819,"ria":3820,"ĠLive":3821,"Ġunit":3822,"Ġdiscover":3823,"Ġprevent":3824,"Ġregistration":3825,"box":3826,"Ġplanning":3827,"Ġvehic":3828,"Ġbenefits":3829,"Ġlicense":3830,"Ġopportunity":3831,"Le":3832,"Pre":3833,"cil":3834,"Ġterr":3835,"Ġtask":3836,"ini":3837,"ani":3838,"ĠPost":3839,"ĠTest":3840,"ĠMB":3841,"ĠMel":3842,"irth":3843,"rie":3844,"ĠVia":3845,"Ġappropri":3846,"Ġunivers":3847,"Ġindic":3848,"ĠDev":3849,"ĠArch":3850,"Ġblack":3851,"ĠManager":3852,"Ġrunning":3853,"Ġefficiency":3854,"45":3855,"Each":3856,"oes":3857,"Ġobs":3858,"icies":3859,"ĠSun":3860,"ĠCast":3861,"adem":3862,"Ġjob":3863,"Ġreliable":3864,"iction":3865,"Ġgreen":3866,"Ġmessage":3867,"Guests":3868,"ĠBreakfast":3869,"Ġaccordance":3870,"Free":3871,"MA":3872,"TS":3873,"rehens":3874,"atives":3875,"Ġsix":3876,"ading":3877,"Ġproced":3878,"ategy":3879,"ailing":3880,"Ġweight":3881,"ĠStand":3882,"Ġ2010":3883,"Ġprefer":3884,"ĠâĢ¢":3885,"Ġavoid":3886,"Reg":3887,"ĠSea":3888,"Ġshows":3889,"ouncil":3890,"Ġcomfortable":3891,"IG":3892,"MS":3893,"PS":3894,"bor":3895,"wan":3896,"Ġtakes":3897,"Ġsale":3898,"Ġop":3899,"Ġdaily":3900,"ĠSon":3901,"ĠCustom":3902,"Ġlabor":3903,"ĠRet":3904,"ĠEgypt":3905,"Ġdeg":3906,"Ġround":3907,"sequ":3908,"ĠTex":3909,"idential":3910,"ĠSpain":3911,"Ġsimply":3912,"Ġpoints":3913,"ĠQuick":3914,"Ġpublished":3915,"Ġrecommend":3916,"ĠKorea":3917,"EO":3918,"xx":3919,"Ġtouch":3920,"atal":3921,"ception":3922,"ĠLaw":3923,"ĠEqu":3924,"ociety":3925,"ĠUN":3926,"Ġenh":3927,"Ġ35":3928,"Ġrob":3929,"Ġintrodu":3930,"Ġoutput":3931,"rupt":3932,"bsites":3933,"ancing":3934,"Ġadded":3935,"Ġdoesn":3936,"Ġinsurance":3937,"Ġextrem":3938,"ecause":3939,"Ġswe":3940,"ĠParty":3941,"Ġconcern":3942,"Ġcontinuous":3943,"Ġcutting":3944,"Ġbeginning":3945,"49":3946,"Ġten":3947,"Ġopp":3948,"arter":3949,"Ġbab":3950,"Ġhundred":3951,"ĠSocial":3952,"ĠSpecial":3953,"Ġlif":3954,"ĠTop":3955,"ĠMag":3956,"ĠHoly":3957,"abase":3958,"iforn":3959,"Ġvers":3960,"ĠWater":3961,"ustain":3962,"umber":3963,"iber":3964,"Ġgrant":3965,"Ġmeters":3966,"Ġbreak":3967,"Ġbooking":3968,"Ġeffective":3969,"poses":3970,"Any":3971,"Ġpleas":3972,"Ġchalleng":3973,"Best":3974,"His":3975,"OW":3976,"Yes":3977,"lied":3978,"ny":3979,"Ġill":3980,"Ġsquare":3981,"ano":3982,"iling":3983,"ĠShe":3984,"ĠSub":3985,"ĠAC":3986,"ĠTick":3987,"Ġhear":3988,"ĠHer":3989,"Ġtraff":3990,"ĠJew":3991,"cluding":3992,"Ġexperts":3993,"Ġindustries":3994,"ĠUSA":3995,"Ġconfirm":3996,"tainment":3997,"Ġskills":3998,"Ġbroad":3999,"Ġbasis":4000,"Ġdocuments":4001,"ĠSecurity":4002,"Ġassociated":4003,"30319":4004,"ĠTexas":4005,"ifornia":4006,"Am":4007,"Go":4008,"LE":4009,"Over":4010,"¿½":4011,"ï¿½":4012,"Ġthee":4013,"ĠChe":4014,"ĠApr":4015,"acing":4016,"ĠTem":4017,"ago":4018,"agon":4019,"ĠDay":4020,"ĠLast":4021,"Ġ($":4022,"antic":4023,"ailand":4024,"rug":4025,"Ġmodels":4026,"Ġscient":4027,"Ġresponse":4028,"Ġconnected":4029,"Ġdecision":4030,"Ġsensor":4031,"Ġdiam":4032,"Ġestablish":4033,"Ġsteps":4034,"Ġstatus":4035,"ecutive":4036,"77":4037,"AB":4038,"bar":4039,"ball":4040,"met":4041,"nam":4042,"spe":4043,"uff":4044,"aturing":4045,"Ġslow":4046,"Ġwireless":4047,"Ġmouth":4048,"Ġye":4049,"uses":4050,"ĠHim":4051,"ĠWhen":4052,"ellite":4053,"acebook":4054,"uality":4055,"Ġfeet":4056,"ĠArab":4057,"Ġinside":4058,"ĠClub":4059,"Ġboard":4060,"Ġselected":4061,"Ġorganization":4062,"Ġpractice":4063,"Ġfilter":4064,"Ġhighest":4065,"Article":4066,"Ġerror":4067,"ĠAfrica":4068,"31":4069,"38":4070,"OT":4071,"rain":4072,"uge":4073,"Ġsym":4074,"Ġcategory":4075,"Ġmat":4076,"Ġdiv":4077,"lege":4078,"Ġhope":4079,"ĠCENT":4080,"cember":4081,"abilities":4082,"ĠGames":4083,"ĠNet":4084,"ilet":4085,"Ġhelps":4086,"Ġacqu":4087,"ĠSuper":4088,"Ġoperations":4089,"Ġagreement":4090,"Ġcollection":4091,"Ġinstalled":4092,"Ġwarrant":4093,"Ġcopyright":4094,"Ġconsidered":4095,"High":4096,"uis":4097,"inery":4098,"Ġcy":4099,"Ġhous":4100,"ĠCur":4101,"Ġlines":4102,"ĠApartments":4103,"acious":4104,"Ġbear":4105,"Ġconv":4106,"ĠLight":4107,"Ġ29":4108,"Ġvac":4109,"ĠNow":4110,"resp":4111,"ĠVilla":4112,"Ġability":4113,"Ġjud":4114,"ological":4115,"Ġmode":4116,"Ġmaintenance":4117,"Ġmarkets":4118,"Ġobl":4119,"Ġsurround":4120,"TMs":4121,"Ġmoved":4122,"ĠSkip":4123,"Ġbenefit":4124,"ĠVideos":4125,"Ġaccurate":4126,"Ġphysical":4127,"Ġchannels":4128,"46":4129,"Template":4130,"ĠST":4131,"Ġthou":4132,"ĠAN":4133,"imming":4134,"ady":4135,"ĠTown":4136,"ĠBrit":4137,"ĠLED":4138,"Ġitems":4139,"ĠNetwork":4140,"ĠUp":4141,"ĠOpt":4142,"Ġchurch":4143,"ĠVe":4144,"Ġcomprehens":4145,"ĠJer":4146,"ĠProgram":4147,"Ġrelig":4148,"Ġinterested":4149,"Ġconsist":4150,"Ġconsult":4151,"Ġmetal":4152,"Ġoffered":4153,"Ġpolicies":4154,"Ġfamous":4155,"ĠAccount":4156,"ersonal":4157,"Ġtraffic":4158,"Just":4159,"OU":4160,"xy":4161,"enities":4162,"Ġpump":4163,"iled":4164,"Ġeat":4165,"igure":4166,"ĠPack":4167,"adu":4168,"ĠMad":4169,"ĠBas":4170,"ĠList":4171,"empt":4172,"iah":4173,"ĠStr":4174,"ĠStat":4175,"Ġpartner":4176,"Ġcoffee":4177,"ĠPrice":4178,"Ġaffect":4179,"Ġbasic":4180,"Ġengineering":4181,"ĠRussian":4182,"Ġchemical":4183,"Ġappropriate":4184,".)":4185,"Here":4186,"Learn":4187,"Red":4188,"hood":4189,"mm":4190,"work":4191,"Ġter":4192,"erous":4193,"rel":4194,"Ġsn":4195,"orse":4196,"iture":4197,"Ġways":4198,"asc":4199,"ĠSal":4200,"ĠSol":4201,"etary":4202,"ĠPHP":4203,"ado":4204,"Ġstock":4205,"arest":4206,"ĠVol":4207,"Ġlearning":4208,"Ġcontains":4209,"Ġsoft":4210,"enses":4211,"ought":4212,"Ġ80":4213,"ĠManufact":4214,"Ġpowerful":4215,"Ġlinks":4216,"Ġtickets":4217,"ography":4218,"Ġtrend":4219,"Ġmonitoring":4220,"Ġfunctions":4221,"Int":4222,"ios":4223,"men":4224,"where":4225,"Ġult":4226,"Ġsem":4227,"Ġsell":4228,"isco":4229,"Ġfall":4230,"Ġfell":4231,"Ġfuck":4232,"Ġbreat":4233,"ĠSim":4234,"Ġlength":4235,"ĠBer":4236,"Ġstory":4237,"estions":4238,"unt":4239,"ĠGame":4240,"Ġusually":4241,"ocr":4242,"Ġtrav":4243,"Ġanyone":4244,"Ġremove":4245,"Ġblog":4246,"ĠAnal":4247,"Ġmeasures":4248,"URY":4249,"Ġupdate":4250,");":4251,"08":4252,"65":4253,"Bu":4254,"Off":4255,"wood":4256,"Ġbur":4257,"asy":4258,"ĠSam":4259,"ira":4260,"Ġalone":4261,"Ġrules":4262,"Ġimm":4263,"ĠThere":4264,"Ġfees":4265,"Ġexpand":4266,"Ġformat":4267,"Ġcentury":4268,"Ġvisitors":4269,"ĠInstagram":4270,"ĠSeries":4271,"Ġenvironmental":4272,"Ġsatis":4273,"ĠHostels":4274,"ĠJanuary":4275,"ĠApril":4276,"PDF":4277,"QL":4278,"Se":4279,"Up":4280,"mal":4281,"ville":4282,"Ġå":4283,"Ġpow":4284,"arily":4285,"Ġmiddle":4286,"Ġthus":4287,"Ġnav":4288,"Ġnorm":4289,"Ġprob":4290,"ĠDav":4291,"âĢĵ":4292,"ĠChurch":4293,"ĠUnion":4294,"Ġactive":4295,"Ġworldwide":4296,"Ġseek":4297,"ĠHealth":4298,"ĠIslands":4299,"Ġcapt":4300,"Ġelectronic":4301,"Ġaccepted":4302,"Ġinnovative":4303,"Ġsettings":4304,"Every":4305,"IA":4306,"ares":4307,"bru":4308,"gar":4309,"Ġwish":4310,"Ġdining":4311,"ctor":4312,"amily":4313,"ĠMont":4314,"ĠHD":4315,"apers":4316,"force":4317,"aste":4318,"asts":4319,"Ġmanage":4320,"Ġclimate":4321,"Ġclients":4322,"ĠThailand":4323,"Ġrecent":4324,"aza":4325,"Ġprograms":4326,"attle":4327,"ĠLocation":4328,"Ġseparate":4329,"ĠMarketing":4330,"Ġcompletely":4331,"Because":4332,"IF":4333,"Use":4334,"han":4335,"new":4336,"Ġscre":4337,"ros":4338,"Ġhum":4339,"apid":4340,"ĠGarden":4341,"ĠEnd":4342,"ĠEconom":4343,"Ġshower":4344,"ocol":4345,"ovember":4346,"ĠDecember":4347,"Ġcarry":4348,"ĠAdmin":4349,"ĠSpanish":4350,"ĠClass":4351,"Ġinfrastructure":4352,"Ġphoto":4353,"Ġreflect":4354,"Ġidea":4355,"Ġflowers":4356,"Ġregistered":4357,"ĠCENTURY":4358,"Press":4359,"cul":4360,"xim":4361,"Ġcry":4362,"alu":4363,"ellect":4364,"Ġlau":4365,"aming":4366,"ĠMarch":4367,"term":4368,"verter":4369,"ĠHel":4370,"ĠRome":4371,"osing":4372,"ĠGreat":4373,"Ġshipping":4374,"Ġcancer":4375,"Ġpercent":4376,"Ġuseful":4377,"Ġ500":4378,"Ġprim":4379,"Ġinstitut":4380,"ticles":4381,"Ġdecor":4382,"Ġincreasing":4383,"Ġhostels":4384,"Ġfriendly":4385,"Ġsensors":4386,"Ġmotor":4387,"Ġconvenient":4388,"ä¸Ń":4389,"Ġcomprehensive":4390,"Co":4391,"band":4392,"zhen":4393,"Â°":4394,"Ġcold":4395,"Ġmm":4396,"ĠCle":4397,"ĠCert":4398,"Ġrele":4399,"ĠDrive":4400,"ĠLake":4401,"ĠRad":4402,"ĠGood":4403,"Ġexternal":4404,"Ġremember":4405,"Ġ2008":4406,"Ġgeneration":4407,"Ġswitch":4408,"Ġautomatic":4409,"Ġadvantage":4410,"Ġsleep":4411,"Ġpolitical":4412,"37":4413,"64":4414,"85":4415,"II":4416,"cher":4417,"nce":4418,"tr":4419,"het":4420,"Ġpul":4421,"Ġinform":4422,"roduction":4423,"Ġrelease":4424,"ida":4425,"usion":4426,"Ġshared":4427,"lication":4428,"Ġarr":4429,"Ġremote":4430,"ĠTravel":4431,"ĠFramework":4432,"Ġpurposes":4433,"Ġrestaurants":4434,"Ġeffects":4435,"Ġposted":4436,"Ġwrong":4437,"Ġeconomy":4438,"Ġcleaning":4439,"ĠPeople":4440,"ilitary":4441,"Ġcamera":4442,"Ġindependent":4443,"Ġdeposit":4444,"Ġessential":4445,"Me":4446,"Most":4447,"cond":4448,"field":4449,"ht":4450,"ius":4451,"iance":4452,"with":4453,"Ġaward":4454,"Ġsal":4455,"Ġcities":4456,"Ġwife":4457,"Ġwriting":4458,"anning":4459,"Ġfresh":4460,"Ġpages":4461,"Ġbi":4462,"Ġmaster":4463,"iced":4464,"ĠSaf":4465,"ĠCouncil":4466,"otive":4467,"Ġelements":4468,"usal":4469,"Ġgives":4470,"ĠIC":4471,"ĠMain":4472,"ĠDo":4473,"una":4474,"unk":4475,"ĠEduc":4476,"Ġwhom":4477,"Ġshut":4478,"ificate":4479,"While":4480,"rency":4481,"Ġserious":4482,"ĠItalian":4483,"Ġnearby":4484,"Ġsubst":4485,"Ġdirection":4486,"Ġhardware":4487,"Ġallowed":4488,"Usage":4489,"ĠAutom":4490,"Ġanswer":4491,"Ġheaven":4492,"Ġmeasurement":4493,"ĠDirector":4494,"Ġdistribution":4495,"About":4496,"69":4497,"Don":4498,"PC":4499,"PR":4500,"fa":4501,"Ġweld":4502,"anz":4503,"Ġboy":4504,"Ġmiss":4505,"ĠPublic":4506,"ĠMount":4507,"ĠGl":4508,"ores":4509,"pper":4510,"Ġwebsites":4511,"Ġenable":4512,"ruit":4513,"Ġcool":4514,"Ġconsent":4515,"Ġblue":4516,"ĠSupport":4517,"Ġextra":4518,"Ġdefin":4519,"Ġwrite":4520,"Ġaffili":4521,"Ġapproach":4522,"Ġsuccessful":4523,"Ġmessages":4524,"Ġdedicated":4525,"UN":4526,"nect":4527,"Ġtried":4528,"Ġapartments":4529,"ened":4530,"ĠClick":4531,"Ġreached":4532,"Ġled":4533,"urers":4534,"ĠAvenue":4535,"acle":4536,"ĠDet":4537,"unities":4538,"Ġvirtual":4539,"ĠInf":4540,"izes":4541,"Ġ31":4542,"Ġunits":4543,"ittee":4544,"Ġamenities":4545,"Ġtransact":4546,"Ġregular":4547,"olutions":4548,"ribute":4549,"Ġprotected":4550,"ounter":4551,"Ġmulti":4552,"Ġgrowing":4553,"Ġfilm":4554,"Ġoccur":4555,"ĠPrivate":4556,"Ġmethods":4557,"ĠDepart":4558,"39":4559,"88":4560,"Let":4561,"Ltd":4562,"ka":4563,"wikipedia":4564,"rew":4565,"itzer":4566,"Ġwild":4567,"Ġball":4568,"Ġinput":4569,"Ġdyn":4570,"Ġholiday":4571,"omen":4572,"ĠSat":4573,"ĠSur":4574,"ĠCons":4575,"ĠPan":4576,"ador":4577,"ĠMedia":4578,"ĠHu":4579,"ĠHTML":4580,"ĠLo":4581,"abit":4582,"allery":4583,"henzhen":4584,"Ġenables":4585,"Ġplaced":4586,"ĠProject":4587,"Ġmodify":4588,"âĤ¬ï¿½":4589,"Ġexpected":4590,"cony":4591,"Ġsurve":4592,"Ġfinal":4593,"Ġmachines":4594,"Ġstrateg":4595,"Ġbedroom":4596,"Ġpopulation":4597,"ĠWhite":4598,"zech":4599,"Ġinnovation":4600,"ĠÂ»":4601,"Ġadministr":4602,"ĠSanta":4603,"ĠArea":4604,"Ġorganizations":4605,"Part":4606,"Since":4607,"ca":4608,"ev":4609,"ien":4610,"ipe":4611,"Ġ=":4612,"itter":4613,"Ġcop":4614,"Ġcivil":4615,"inger":4616,"Ġnor":4617,"ĠPop":4618,"ĠPDF":4619,"ĠMot":4620,"iring":4621,"ĠRem":4622,"ĠFre":4623,"Ġdeals":4624,"Ġrub":4625,"umin":4626,"ears":4627,"ello":4628,"Ġintellig":4629,"Ġactually":4630,"Ġ90":4631,"Ġattention":4632,"Ġeveryone":4633,"ĠTrade":4634,"Ġ2009":4635,"porary":4636,"Ġincreased":4637,"attery":4638,"Ġdomestic":4639,"visor":4640,"embly":4641,"Ġcollabor":4642,"42":4643,"OM":4644,"aud":4645,"eed":4646,"hol":4647,"Ġç":4648,"arian":4649,"asons":4650,"Ġlives":4651,"ĠAD":4652,"ĠGet":4653,"ĠWestern":4654,"Ġcompli":4655,"ĠKey":4656,"Ġresolution":4657,"igned":4658,"Ġspacious":4659,"ĠGuangzhou":4660,"Ġstrategy":4661,"Ġlisted":4662,"Ġevidence":4663,"Also":4664,"Ġresponsibility":4665,"ĠBuilding":4666,"bourne":4667,"HE":4668,"Less":4669,"OD":4670,"Room":4671,"la":4672,"nown":4673,"Ã¼":4674,"æĸ":4675,"Ġaim":4676,"including":4677,"Ġfitness":4678,"aling":4679,"Ġinternal":4680,"icient":4681,"ashing":4682,"ĠSpe":4683,"ĠCy":4684,"ĠCult":4685,"idel":4686,"images":4687,"ĠTur":4688,"Ġstood":4689,"ĠHist":4690,"ĠFacebook":4691,"ĠEr":4692,"Ġexerc":4693,"Ġrather":4694,"Ġqual":4695,"Ġdetailed":4696,"prises":4697,"azing":4698,"ĠFranc":4699,"ĠAndroid":4700,"Ġideas":4701,"Ġbrother":4702,"Ġclosed":4703,"ĠPortug":4704,"razil":4705,"ĠOrganization":4706,"owntown":4707,"VD":4708,"che":4709,"key":4710,"Ġsold":4711,"Ġsense":4712,"oring":4713,"ndry":4714,"Ġcast":4715,"Ġferries":4716,"ala":4717,"arium":4718,"Ġmix":4719,"ola":4720,"ĠTool":4721,"agn":4722,"ĠLat":4723,"ĠEmail":4724,"ĠNovember":4725,"udget":4726,"Ġthemselves":4727,"ĠProcess":4728,"Ġflu":4729,"Ġfollowed":4730,"ippo":4731,"poration":4732,"ĠPrague":4733,"Ġinflu":4734,"ĠInstruments":4735,"Ġflower":4736,"Ġunderstanding":4737,"Ġmoving":4738,"Ġbehav":4739,"Ġelse":4740,"Ġreservation":4741,"Address":4742,"Ġanti":4743,"Ġsummer":4744,"ĠEngineering":4745,"41":4746,"500":4747,"List":4748,"Note":4749,"ded":4750,"fol":4751,"gage":4752,"iers":4753,"mas":4754,"more":4755,"nal":4756,"pat":4757,"ran":4758,"za":4759,"Åĵ":4760,"ĠâĤ¬":4761,"alle":4762,"Ġtowards":4763,"road":4764,"amed":4765,"Ġprogress":4766,"abled":4767,"ĠFed":4768,"ĠFlow":4769,"Ġring":4770,"ĠUK":4771,"Ġsuitable":4772,"anges":4773,"ĠJo":4774,"ĠStore":4775,"aven":4776,"ults":4777,"Ġtea":4778,"Ġserved":4779,"Ġspread":4780,"Ġsomeone":4781,"iquid":4782,"ĠConvention":4783,"Ġdiscount":4784,"Ġchanged":4785,"ĠFeature":4786,"ydney":4787,"Ġcampsite":4788,"celona":4789,"electronics":4790,"Ġcircum":4791,"Ġpicture":4792,"Ġregarding":4793,"ĠASP":4794,"ĠRestaurant":4795,"Ġbecomes":4796,"Ġparents":4797,"ellectual":4798,"66":4799,"Even":4800,"MB":4801,"Select":4802,"Vis":4803,"eff":4804,"pic":4805,"tle":4806,"Ã¡":4807,"Ġcock":4808,"Ġmis":4809,"Ġdim":4810,"roy":4811,"oms":4812,"ilies":4813,"ston":4814,"Ġnames":4815,"Ġear":4816,"ĠAM":4817,"ĠLong":4818,"ĠRiver":4819,"Ġexcept":4820,"Ġshown":4821,"Ġgoal":4822,"Ġquiet":4823,"Ġprepar":4824,"Ġreliability":4825,"Ġdeveloping":4826,"Ġbusinesses":4827,"Ġgetting":4828,"Ġweeks":4829,"Ġesc":4830,"Ġmeaning":4831,"Ġproduce":4832,"Ġopportunities":4833,"Ġpictures":4834,"ĠTaiwan":4835,"'d":4836,"Aut":4837,"Eng":4838,"iant":4839,"then":4840,"Ġicon":4841,"erate":4842,"Ġwonder":4843,"isation":4844,"Ġbirth":4845,"ĠCD":4846,"Ġge":4847,"ĠPaul":4848,"ĠMo":4849,"ĠMax":4850,"ĠDen":4851,"rif":4852,"ĠFood":4853,"Ġsuite":4854,"Ġtrying":4855,"ialog":4856,"Ġcontribut":4857,"ĠStar":4858,"Ġ300":4859,"Ġresistance":4860,"Ġclient":4861,"Ġmyself":4862,"China":4863,"Ġbright":4864,"ĠArts":4865,"Ġapplicable":4866,"ĠSuite":4867,"ĠQue":4868,"Ġdecided":4869,"Ġtrading":4870,"vernment":4871,"ĠCommunity":4872,"Ġpromote":4873,"Ġeye":4874,"ĠCalifornia":4875,"Ġsignificant":4876,"CE":4877,"Hippo":4878,"sm":4879,"ued":4880,"Ġ?":4881,"Ġtal":4882,"Ġfight":4883,"Ġpen":4884,"Ġmatch":4885,"ĠSTM":4886,"ĠCzech":4887,"ĠTutor":4888,"ĠHuman":4889,"ĠLink":4890,"Ġ(@":4891,"ĠFire":4892,"Ġwhose":4893,"Ġweather":4894,"ava":4895,"iki":4896,"place":4897,"Ġspend":4898,"enced":4899,"encies":4900,"ĠControl":4901,"Ġentered":4902,"Ġwalking":4903,"Ġcourt":4904,"Ġlimit":4905,"Ġdemon":4906,"ĠApple":4907,"aught":4908,"Ġcharacteristics":4909,"ombia":4910,"ĠFileHippo":4911,"ĠDavid":4912,"bruary":4913,"usalem":4914,"itzerland":4915,"43":4916,"AG":4917,"Berry":4918,"IV":4919,"dam":4920,"nel":4921,"point":4922,"yond":4923,"rec":4924,"Ġcov":4925,"Ġmention":4926,"Ġluxury":4927,"ĠPat":4928,"ĠLCD":4929,"Ġvs":4930,"Ġrich":4931,"ĠChat":4932,"Ġund":4933,"ellers":4934,"ansion":4935,"lection":4936,"Ġ45":4937,"Ġinstead":4938,"Ġevalu":4939,"Ġskin":4940,"liers":4941,"Ġlanguages":4942,"Ġparam":4943,"Ġinteresting":4944,"Ġconfiguration":4945,"ĠEquipment":4946,"89":4947,"RM":4948,"gal":4949,"hu":4950,"ãĢ":4951,"itiz":4952,"Ġcore":4953,"Ġbound":4954,"Ġder":4955,"Ġdied":4956,"ĠCode":4957,"Ġisland":4958,"ĠFair":4959,"Ġvul":4960,"Ġrapid":4961,"ailway":4962,"Ġ--":4963,"Ġcompress":4964,"ĠChar":4965,"formance":4966,"Ġrot":4967,"order":4968,"bert":4969,"Ġfee":4970,"Ġrequires":4971,"grade":4972,"ĠSex":4973,"Ġguide":4974,"Ġsetting":4975,"Ġserve":4976,"ĠPlay":4977,"Ġowners":4978,"ĠSpa":4979,"Ġsupported":4980,"Ġstudent":4981,"ashion":4982,"anguage":4983,"ĠScience":4984,"Ġletter":4985,"ĠAssoci":4986,"Ġaccuracy":4987,"Ġannoun":4988,"Ġgraphics":4989,"Ġarchitecture":4990,"condition":4991,"04":4992,"CC":4993,"Oh":4994,"Sc":4995,"Sm":4996,"bu":4997,"gas":4998,"ii":4999}